{"version":"1.0","truncation":null,"padding":null,"added_tokens":[{"id":0,"special":true,"content":"[UNK]","single_word":false,"lstrip":false,"rstrip":false,"normalized":false},{"id":1,"special":true,"content":"[CLS]","single_word":false,"lstrip":false,"rstrip":false,"normalized":false},{"id":2,"special":true,"content":"[SEP]","single_word":false,"lstrip":false,"rstrip":false,"normalized":false},{"id":3,"special":true,"content":"[PAD]","single_word":false,"lstrip":false,"rstrip":false,"normalized":false},{"id":4,"special":true,"content":"[MASK]","single_word":false,"lstrip":false,"rstrip":false,"normalized":false}],"normalizer":null,"pre_tokenizer":{"type":"BertPreTokenizer"},"post_processor":null,"decoder":null,"model":{"type":"WordPiece","unk_token":"[UNK]","continuing_subword_prefix":"##","max_input_chars_per_word":100,"vocab":{"[UNK]":0,"[CLS]":1,"[SEP]":2,"[PAD]":3,"[MASK]":4,"!":5,"\"":6,"#":7,"$":8,"%":9,"&":10,"'":11,"(":12,")":13,"*":14,"+":15,",":16,"-":17,".":18,"/":19,"0":20,"1":21,"2":22,"3":23,"4":24,"5":25,"6":26,"7":27,"8":28,"9":29,":":30,";":31,"<":32,"=":33,">":34,"?":35,"@":36,"A":37,"B":38,"C":39,"D":40,"E":41,"F":42,"G":43,"H":44,"I":45,"J":46,"K":47,"L":48,"M":49,"N":50,"O":51,"P":52,"Q":53,"R":54,"S":55,"T":56,"U":57,"V":58,"W":59,"X":60,"Y":61,"Z":62,"[":63,"\\":64,"]":65,"^":66,"_":67,"`":68,"a":69,"b":70,"c":71,"d":72,"e":73,"f":74,"g":75,"h":76,"i":77,"j":78,"k":79,"l":80,"m":81,"n":82,"o":83,"p":84,"q":85,"r":86,"s":87,"t":88,"u":89,"v":90,"w":91,"x":92,"y":93,"z":94,"{":95,"|":96,"}":97,"~":98,"ú":99,"’":100,"�":101,"##l":102,"##o":103,"##u":104,"##d":105,"##e":106,"##r":107,"##a":108,"##P":109,"##O":110,"##S":111,"##K":112,"##y":113,"##b":114,"##I":115,"##D":116,"##m":117,"##p":118,"##x":119,"##B":120,"##t":121,"##n":122,"##s":123,"##A":124,"##c":125,"##h":126,"##E":127,"##5":128,"##k":129,"##g":130,"##V":131,"##C":132,"##w":133,"##i":134,"##f":135,"##2":136,"##9":137,"##8":138,"##6":139,"##7":140,"##3":141,"##v":142,"##F":143,"##T":144,"##W":145,"##N":146,"##q":147,"##1":148,"##j":149,"##4":150,"##L":151,"##R":152,"##0":153,"##Y":154,"##M":155,"##z":156,"##X":157,"##H":158,"##G":159,"##Q":160,"##U":161,"##Z":162,"##J":163,"##�":164,"##ú":165,"##er":166,"##te":167,"##on":168,"##or":169,"##ti":170,"in":171,"##he":172,"##nd":173,"##it":174,"##es":175,"to":176,"##ec":177,"##ta":178,"##il":179,"##ra":180,"##in":181,"the":182,"##lo":183,"##tion":184,"##ul":185,"##ic":186,"##en":187,"##ro":188,"##ers":189,"##ck":190,"##al":191,"re":192,"and":193,"##ed":194,"##low":195,"al":196,"##is":197,"at":198,"##ab":199,"##tack":200,"attack":201,"allow":202,"##ity":203,"##for":204,"##le":205,"##ri":206,"co":207,"be":208,"##ted":209,"##ner":210,"of":211,"##ulner":212,"##ulnerab":213,"##ia":214,"##ote":215,"##ulnerabil":216,"##ar":217,"allows":218,"via":219,"##as":220,"ex":221,"##mote":222,"##ulnerability":223,"remote":224,"##an":225,"##fore":226,"##et":227,"before":228,"##ation":229,"th":230,"ar":231,"##ing":232,"##ess":233,"attackers":234,"vulnerability":235,"20":236,"##ect":237,"##erv":238,"##ent":239,"##us":240,"us":241,"##ry":242,"##ut":243,"is":244,"##at":245,"##mp":246,"##de":247,"##rary":248,"##ecu":249,"##bit":250,"##bitrary":251,"arbitrary":252,"##ile":253,"##ff":254,"##00":255,"CV":256,"##re":257,"##ion":258,"##ag":259,"an":260,"##ad":261,"201":262,"or":263,"con":264,"##cess":265,"##ice":266,"for":267,"execu":268,"##ly":269,"serv":270,"CVE":271,"un":272,"##ter":273,"##pp":274,"##un":275,"##id":276,"##ver":277,"##ow":278,"pro":279,"##ng":280,"##hen":281,"##ot":282,"by":283,"##ir":284,"##if":285,"ac":286,"cra":287,"##ac":288,"##eb":289,"##li":290,"##cri":291,"##ve":292,"pa":293,"##ith":294,"##crip":295,"wh":296,"##ss":297,"ph":298,"with":299,"execute":300,"##aus":301,"##ting":302,"##em":303,"##ts":304,"##ram":305,"##ial":306,"code":307,"##ector":308,"The":309,"php":310,"##co":311,"lo":312,"##ause":313,"##ated":314,"##ue":315,"##ersion":316,"##ich":317,"##tic":318,"which":319,"##and":320,"##pec":321,"##form":322,"on":323,"service":324,"In":325,"##SS":326,"##ate":327,"pri":328,"##ug":329,"de":330,"##me":331,"##uc":332,"cause":333,"##ite":334,"scrip":335,"10":336,"##ib":337,"##ramet":338,"##enial":339,"paramet":340,"attacker":341,"access":342,"version":343,"##tain":344,"that":345,"##el":346,"denial":347,"craf":348,"##pecif":349,"##ied":350,"crafted":351,"ad":352,"##qu":353,"##mm":354,"##uthen":355,"##uthentic":356,"##ig":357,"parameter":358,"file":359,"##age":360,"users":361,"user":362,"##iti":363,"##plo":364,"##per":365,"inj":366,"as":367,"##lier":368,"ear":369,"##rac":370,"##ass":371,"earlier":372,"Serv":373,"##of":374,"web":375,"##ata":376,"##rom":377,"##ction":378,"##ind":379,"##ys":380,"##ffer":381,"not":382,"##uld":383,"##pecified":384,"##lic":385,"HT":386,"##ce":387,"11":388,"##est":389,"do":390,"##specified":391,"##formation":392,"##cal":393,"##od":394,"Th":395,"##indow":396,"aff":397,"An":398,"##QL":399,"app":400,"##ileg":401,"##vileg":402,"##ur":403,"could":404,"##indows":405,"over":406,"comm":407,"##wor":408,"##ol":409,"Windows":410,"##ory":411,"##ay":412,"site":413,"imp":414,"##unction":415,"comp":416,"po":417,"vector":418,"requ":419,"##min":420,"information":421,"##oft":422,"dis":423,"authentic":424,"##her":425,"function":426,"ob":427,"12":428,"vectors":429,"this":430,"versions":431,"can":432,"from":433,"privileg":434,"##ka":435,"##um":436,"##ap":437,"##tem":438,"##lication":439,"explo":440,"fil":441,"##ML":442,"##ead":443,"XSS":444,"aka":445,"##ross":446,"iss":447,"local":448,"##ch":449,"##st":450,"##ugh":451,"##racle":452,"##ll":453,"This":454,"Oracle":455,"##emory":456,"SQL":457,"##are":458,"res":459,"data":460,"issue":461,"command":462,"##rough":463,"Server":464,"through":465,"##up":466,"##ystem":467,"##ection":468,"SD":469,"exploit":470,"##flow":471,"##ected":472,"are":473,"##anag":474,"unspecified":475,"##uffer":476,"##iz":477,"overflow":478,"##va":479,"##ple":480,"memory":481,"##ware":482,"##ure":483,"does":484,"files":485,"read":486,"##ame":487,"scripting":488,"##sh":489,"when":490,"##ain":491,"##onent":492,"##tial":493,"admin":494,"##se":495,"application":496,"HTML":497,"val":498,"##ther":499,"##duc":500,"dev":501,"##roid":502,"en":503,"obtain":504,"script":505,"##ub":506,"##ulti":507,"affected":508,"2016":509,"se":510,"##ndroid":511,"##own":512,"Con":513,"##able":514,"was":515,"##ist":516,"##ssib":517,"##tor":518,"##rity":519,"inc":520,"##ens":521,"mod":522,"possib":523,"inject":524,"##20":525,"SP":526,"has":527,"##OS":528,"crash":529,"cer":530,"Android":531,"authenticated":532,"##orr":533,"##to":534,"##ultiple":535,"##TP":536,"Web":537,"ins":538,"Un":539,"commands":540,"inter":541,"200":542,"##ew":543,"##und":544,"ID":545,"una":546,"2015":547,"##work":548,"component":549,"##ten":550,"other":551,"##am":552,"##io":553,"##ger":554,"request":555,"##ress":556,"##ack":557,"Ad":558,"Pro":559,"rel":560,"proper":561,"privileges":562,"prior":563,"conf":564,"injection":565,"##ase":566,"Manag":567,"App":568,"buffer":569,"##ob":570,"##itive":571,"system":572,"sens":573,"Vulnerability":574,"##ave":575,"##tro":576,"sensitive":577,"##icro":578,"##ge":579,"Ex":580,"##ult":581,"Cross":582,"related":583,"add":584,"Micro":585,"##ail":586,"impac":587,"##ava":588,"##ire":589,"##irector":590,"15":591,"##ise":592,"mal":593,"##10":594,"than":595,"attacks":596,"##ere":597,"##ities":598,"CVSS":599,"##soft":600,"Re":601,"Multiple":602,"##ox":603,"##uth":604,"UR":605,"possibly":606,"Co":607,"##nel":608,"pass":609,"##nown":610,"##ak":611,"##etwork":612,"##HP":613,"##xt":614,"##ound":615,"Microsoft":616,"##tr":617,"##ace":618,"##ulnerabilities":619,"per":620,"vulnerabilities":621,"##ore":622,"properly":623,"par":624,"##ful":625,"##ition":626,"tra":627,"PHP":628,"pl":629,"##ud":630,"##ices":631,"##pass":632,"##BM":633,"##00R":634,"log":635,"Java":636,"##uccess":637,"##irectory":638,"##word":639,"##uccessful":640,"lead":641,"server":642,"##tif":643,"##all":644,"HTTP":645,"##ential":646,"exis":647,"##ased":648,"##00R00":649,"##isco":650,"may":651,"have":652,"le":653,"##50":654,"##TE":655,"so":656,"##pe":657,"##known":658,"##ort":659,"##ser":660,"ch":661,"Ac":662,"##oo":663,"##sion":664,"execution":665,"##ment":666,"IBM":667,"##ine":668,"hand":669,"13":670,"CS":671,"##orrup":672,"di":673,"##pen":674,"fi":675,"##cover":676,"discover":677,"##po":678,"##ject":679,"##uthor":680,"bypass":681,"##ious":682,"pack":683,"based":684,"incl":685,"Cisco":686,"OS":687,"##ernel":688,"used":689,"unknown":690,"##rig":691,"inte":692,"##ement":693,"lib":694,"##ty":695,"##ecurity":696,"##orruption":697,"device":698,"valid":699,"##ized":700,"process":701,"differ":702,"Lin":703,"different":704,"##pl":705,"##pd":706,"exists":707,"password":708,"discovered":709,"##vers":710,"gain":711,"affect":712,"En":713,"##duct":714,"##upp":715,"##istra":716,"14":717,"URL":718,"##ux":719,"pat":720,"##ard":721,"it":722,"cross":723,"##icious":724,"##ric":725,"17":726,"##igh":727,"malicious":728,"##pr":729,"##la":730,"##tive":731,"config":732,"##iew":733,"##oftware":734,"ro":735,"sub":736,"##11":737,"Unspecified":738,"18":739,"kernel":740,"2017":741,"set":742,"##ies":743,"##trol":744,"##ility":745,"00":746,"NO":747,"certain":748,"16":749,"impact":750,"Inte":751,"##eader":752,"##rite":753,"Successful":754,"##clo":755,"##ode":756,"##emon":757,"inde":758,"contain":759,"NOTE":760,"##tions":761,"authentication":762,"##tific":763,"##tern":764,"out":765,"Linux":766,"network":767,"##uthorized":768,"index":769,"mess":770,"##ify":771,"modul":772,"id":773,"For":774,"##ual":775,"corruption":776,"packet":777,"using":778,"##lete":779,"page":780,"administra":781,"##ord":782,"##sure":783,"##rag":784,"inv":785,"##led":786,"##int":787,"##ree":788,"Pl":789,"##put":790,"##lient":791,"##ument":792,"unauthorized":793,"trig":794,"AP":795,"due":796,"##ong":797,"##heck":798,"Manager":799,"##obe":800,"insta":801,"Adobe":802,"##text":803,"path":804,"##ugin":805,"##os":806,"##mage":807,"##ari":808,"##face":809,"##ign":810,"str":811,"##nap":812,"##60":813,"##ence":814,"##versal":815,"##ide":816,"##tificate":817,"##fer":818,"use":819,"sta":820,"result":821,"30":822,"##im":823,"##09":824,"##eld":825,"bound":826,"##estric":827,"##out":828,"##tation":829,"##uthenticated":830,"certificate":831,"ab":832,"##ragon":833,"##ession":834,"send":835,"devices":836,"##pdate":837,"##ducts":838,"##cript":839,"##napd":840,"##napdragon":841,"##terpr":842,"##closure":843,"##ey":844,"##MS":845,"##dition":846,"##terprise":847,"Fire":848,"##tent":849,"##30":850,"Snapdragon":851,"Enterprise":852,"##ink":853,"unauthenticated":854,"##ffic":855,"man":856,"##arch":857,"##ration":858,"sh":859,"check":860,"##mis":861,"2019":862,"##rr":863,"IP":864,"##AP":865,"##ulnerable":866,"##ations":867,"fir":868,"servers":869,"##load":870,"install":871,"vulnerable":872,"##ok":873,"##les":874,"##mission":875,"##stra":876,"SS":877,"##ages":878,"Open":879,"cre":880,"##rror":881,"long":882,"module":883,"##irect":884,"dot":885,"##pload":886,"SE":887,"input":888,"##idential":889,"directory":890,"##ces":891,"##unt":892,"interface":893,"Ch":894,"object":895,"bounds":896,"##ip":897,"all":898,"##red":899,"restric":900,"##th":901,"traversal":902,"field":903,"##fter":904,"Management":905,"UI":906,"##ible":907,"##ang":908,"##grity":909,"AC":910,"##40":911,"##om":912,"##identiality":913,"##eap":914,"Security":915,"exploitable":916,"##12":917,"##roper":918,"##ph":919,"##men":920,"ne":921,"Apple":922,"##ml":923,"run":924,"error":925,"##usion":926,"##ost":927,"##ight":928,"##log":929,"plugin":930,"##ird":931,"root":932,"MS":933,"19":934,"demon":935,"##oten":936,"name":937,"demonstra":938,"##otential":939,"demonstrated":940,"address":941,"##mware":942,"call":943,"SP2":944,"te":945,"potential":946,"V2":947,"products":948,"##orted":949,"comprom":950,"permission":951,"##idd":952,"##vail":953,"##tri":954,"Buffer":955,"action":956,"##av":957,"after":958,"reques":959,"##ild":960,"some":961,"##89":962,"form":963,"value":964,"session":965,"##C00":966,"##ber":967,"CSC":968,"control":969,"##uration":970,"##000":971,"##name":972,"##ability":973,"##ating":974,"PR":975,"##ault":976,"string":977,"2020":978,"upload":979,"Intern":980,"##nder":981,"##ryp":982,"My":983,"##ute":984,"Sc":985,"disclosure":986,"message":987,"##RF":988,"##our":989,"##action":990,"context":991,"##ngine":992,"client":993,"##fox":994,"resul":995,"##15":996,"privilege":997,"2018":998,"bec":999,"cons":1000,"stor":1001,"##iddle":1002,"imple":1003,"SP1":1004,"Firefox":1005,"accessible":1006,"##old":1007,"##32":1008,"##tail":1009,"##nded":1010,"##ns":1011,"oper":1012,"Internet":1013,"System":1014,"Word":1015,"ele":1016,"def":1017,"##DM":1018,"write":1019,"software":1020,"##80":1021,"com":1022,"firmware":1023,"##oc":1024,"##SP":1025,"es":1026,"##eries":1027,"##poof":1028,"requests":1029,"##ache":1030,"##ET":1031,"##lass":1032,"##ix":1033,"lever":1034,"compromise":1035,"potentially":1036,"##ayer":1037,"Directory":1038,"Base":1039,"ver":1040,"##eo":1041,"because":1042,"##96":1043,"##ract":1044,"administrator":1045,"rec":1046,"trigger":1047,"##redential":1048,"Service":1049,"pre":1050,"V200R00":1051,"##ality":1052,"##abled":1053,"##ype":1054,"##ech":1055,"conn":1056,"##mentation":1057,"##base":1058,"specif":1059,"acco":1060,"spoof":1061,"perform":1062,"ass":1063,"affects":1064,"supp":1065,"within":1066,"User":1067,"validation":1068,"free":1069,"##uild":1070,"configuration":1071,"dri":1072,"search":1073,"Data":1074,"##ature":1075,"##irt":1076,"##ash":1077,"improper":1078,"exploitation":1079,"##LL":1080,"##row":1081,"privileged":1082,"##45":1083,"##one":1084,"credential":1085,"##vailability":1086,"Application":1087,"##pecial":1088,"AV":1089,"sign":1090,"##AN":1091,"##ble":1092,"##ning":1093,"##ily":1094,"manag":1095,"##rob":1096,"interaction":1097,"mis":1098,"qu":1099,"##end":1100,"includ":1101,"##ling":1102,"##og":1103,"##uring":1104,"##SQL":1105,"parameters":1106,"fix":1107,"##orrect":1108,"##ary":1109,"impacts":1110,"##sing":1111,"Acrob":1112,"Acrobat":1113,"em":1114,"might":1115,"MSM":1116,"##art":1117,"##pon":1118,"Reader":1119,"##orer":1120,"view":1121,"MDM":1122,"##Script":1123,"##plorer":1124,"prov":1125,"modify":1126,"##inter":1127,"##ump":1128,"##17":1129,"credentials":1130,"vari":1131,"##troll":1132,"login":1133,"##edia":1134,"##ick":1135,"##comp":1136,"need":1137,"ht":1138,"image":1139,"any":1140,"Score":1141,"CSRF":1142,"##irtual":1143,"##ange":1144,"##op":1145,"Explorer":1146,"Comm":1147,"SSL":1148,"##LE":1149,"Bug":1150,"sc":1151,"SDM":1152,"Eas":1153,"condition":1154,"Conf":1155,"special":1156,"##ex":1157,"##iv":1158,"##ient":1159,"if":1160,"Mo":1161,"##alid":1162,"##vent":1163,"mak":1164,"##gle":1165,"##CP":1166,"detail":1167,"heap":1168,"Supp":1169,"delete":1170,"##ference":1171,"Mac":1172,"security":1173,"##ie":1174,"01":1175,"default":1176,"open":1177,"MySQL":1178,"no":1179,"##olv":1180,"implementation":1181,"##AT":1182,"update":1183,"42":1184,"##oogle":1185,"##ery":1186,"Pri":1187,"doc":1188,"##af":1189,"##ive":1190,"##ill":1191,"##rame":1192,"during":1193,"Software":1194,"##42":1195,"##col":1196,"##uch":1197,"middle":1198,"Version":1199,"##vation":1200,"##ecure":1201,"De":1202,"##ell":1203,"Vector":1204,"key":1205,"new":1206,"fe":1207,"##35":1208,"##tension":1209,"##tocol":1210,"##fficient":1211,"##uite":1212,"##ded":1213,"Google":1214,"##rome":1215,"##Press":1216,"third":1217,"API":1218,"##tection":1219,"V5":1220,"##arge":1221,"conduct":1222,"##ufficient":1223,"addition":1224,"arg":1225,"party":1226,"intended":1227,"op":1228,"##usted":1229,"##eth":1230,"Comp":1231,"##dit":1232,"header":1233,"##ues":1234,"##tal":1235,"pr":1236,"21":1237,"##ian":1238,"details":1239,"content":1240,"##ier":1241,"WordPress":1242,"##ffice":1243,"SM":1244,"##00R001":1245,"into":1246,"##64":1247,"contains":1248,"reg":1249,"create":1250,"##ization":1251,"2008":1252,"##obile":1253,"specially":1254,"##ethod":1255,"possible":1256,"caus":1257,"Chrome":1258,"enabled":1259,"##ance":1260,"JavaScript":1261,"##70":1262,"asp":1263,"##gram":1264,"involv":1265,"Network":1266,"##ize":1267,"additional":1268,"##ms":1269,"permissions":1270,"pointer":1271,"##CS":1272,"##bo":1273,"##eople":1274,"##ork":1275,"functionality":1276,"VM":1277,"Easily":1278,"XML":1279,"##ownload":1280,"2012":1281,"R2":1282,"obtained":1283,"##ific":1284,"verify":1285,"argument":1286,"People":1287,"##ID":1288,"account":1289,"##43":1290,"2013":1291,"Do":1292,"brow":1293,"method":1294,"##aging":1295,"##ax":1296,"specific":1297,"HP":1298,"On":1299,"22":1300,"iOS":1301,"SI":1302,"there":1303,"Office":1304,"document":1305,"management":1306,"uses":1307,"2014":1308,"needed":1309,"extension":1310,"been":1311,"temp":1312,"sending":1313,"##eta":1314,"##str":1315,"mode":1316,"invalid":1317,"It":1318,"rele":1319,"integrity":1320,"get":1321,"##16":1322,"##tp":1323,"num":1324,"##ener":1325,"##ime":1326,"Sh":1327,"##ture":1328,"without":1329,"objects":1330,"packets":1331,"Supported":1332,"under":1333,"##tec":1334,"these":1335,"##IR":1336,"setting":1337,"##bed":1338,"##lash":1339,"restrictions":1340,"Bus":1341,"multiple":1342,"Virtual":1343,"##ould":1344,"running":1345,"stack":1346,"large":1347,"Suite":1348,"##atch":1349,"##ally":1350,"05":1351,"leading":1352,"80":1353,"##ust":1354,"direct":1355,"##formed":1356,"##que":1357,"##jack":1358,"##anc":1359,"MSM89":1360,"Net":1361,"09":1362,"fail":1363,"##SA":1364,"##uest":1365,"##so":1366,"##eng":1367,"24":1368,"dec":1369,"des":1370,"##cc":1371,"##gery":1372,"##roup":1373,"Services":1374,"host":1375,"##18":1376,"##atform":1377,"malformed":1378,"##ant":1379,"Remote":1380,"such":1381,"##AR":1382,"##SE":1383,"##iness":1384,"confidentiality":1385,"Sol":1386,"escal":1387,"js":1388,"##ark":1389,"program":1390,"##enter":1391,"##ified":1392,"##gent":1393,"Out":1394,"incorrect":1395,"##yn":1396,"##get":1397,"require":1398,"port":1399,"##ert":1400,"feature":1401,"##law":1402,"respon":1403,"##ences":1404,"mac":1405,"Confidentiality":1406,"inclusion":1407,"uni":1408,"resulting":1409,"##ool":1410,"Gold":1411,"##75":1412,"##gers":1413,"Product":1414,"##ength":1415,"inf":1416,"driver":1417,"flaw":1418,"##0000":1419,"cha":1420,"handle":1421,"File":1422,"cur":1423,"CMS":1424,"##ames":1425,"##hell":1426,"##che":1427,"Series":1428,"Business":1429,"triggers":1430,"Force":1431,"##raph":1432,"##umption":1433,"##trib":1434,"link":1435,"pers":1436,"##racters":1437,"build":1438,"##ource":1439,"Memory":1440,"##ee":1441,"##gi":1442,"509":1443,"##ijack":1444,"##ited":1445,"successful":1446,"up":1447,"Intel":1448,"##lock":1449,"fixed":1450,"class":1451,"back":1452,"25":1453,"##vir":1454,"product":1455,"##tim":1456,"##cryp":1457,"##tin":1458,"##illa":1459,"##ude":1460,"cook":1461,"CP":1462,"Ap":1463,"consumption":1464,"unique":1465,"##MP":1466,"##ik":1467,"##Soft":1468,"##loud":1469,"certificates":1470,"##ases":1471,"leak":1472,"load":1473,"##65":1474,"##component":1475,"leveraging":1476,"Update":1477,"subcomponent":1478,"##ereference":1479,"##ook":1480,"handling":1481,"NU":1482,"hijack":1483,"integer":1484,"database":1485,"Player":1486,"rep":1487,"connection":1488,"protocol":1489,"02":1490,"Integrity":1491,"23":1492,"##cep":1493,"##DF":1494,"##19":1495,"##ast":1496,"exp":1497,"##zilla":1498,"overw":1499,"##ull":1500,"edit":1501,"##Con":1502,"IO":1503,"##ower":1504,"Ar":1505,"##00R001C":1506,"##rent":1507,"##ins":1508,"Information":1509,"URI":1510,"dll":1511,"Access":1512,"messages":1513,"download":1514,"##13":1515,"##25":1516,"##til":1517,"Se":1518,"availability":1519,"forgery":1520,"eas":1521,"red":1522,"Dis":1523,"##49":1524,"subs":1525,"cgi":1526,"will":1527,"dereference":1528,"##63":1529,"##ON":1530,"##loc":1531,"Control":1532,"ES":1533,"##we":1534,"##pend":1535,"##ments":1536,"##struc":1537,"##isted":1538,"requir":1539,"include":1540,"RT":1541,"##rt":1542,"##no":1543,"##tity":1544,"length":1545,"Aut":1546,"##der":1547,"while":1548,"sequ":1549,"number":1550,"##main":1551,"006":1552,"sm":1553,"##box":1554,"type":1555,"NULL":1556,"V1":1557,"32":1558,"69":1559,"##mple":1560,"only":1561,"##aemon":1562,"##tom":1563,"##48":1564,"insufficient":1565,"03":1566,"All":1567,"then":1568,"Apache":1569,"011":1570,"##ear":1571,"Te":1572,"occ":1573,"CR":1574,"Active":1575,"Versions":1576,"Scrip":1577,"Po":1578,"Em":1579,"end":1580,"iden":1581,"Ins":1582,"2010":1583,"browser":1584,"Tra":1585,"username":1586,"intern":1587,"current":1588,"##ortal":1589,"occur":1590,"##aris":1591,"mail":1592,"validate":1593,"where":1594,"##62":1595,"lack":1596,"##lear":1597,"administrative":1598,"##file":1599,"##ator":1600,"##troller":1601,"##ream":1602,"Engine":1603,"##erver":1604,"##tical":1605,"##53":1606,"##NS":1607,"##78":1608,"overwrite":1609,"28":1610,"complete":1611,"tr":1612,"Des":1613,"##ous":1614,"##SPC":1615,"tok":1616,"##lian":1617,"Stack":1618,"shell":1619,"values":1620,"04":1621,"makes":1622,"involving":1623,"Lib":1624,"##play":1625,"##ermin":1626,"passwords":1627,"Site":1628,"##Kit":1629,"TCP":1630,"domain":1631,"##DI":1632,"##ramework":1633,"SP3":1634,"Mozilla":1635,"gener":1636,"but":1637,"Code":1638,"stored":1639,"escalation":1640,"##itial":1641,"##CA":1642,"PeopleSoft":1643,"Ph":1644,"##wit":1645,"insert":1646,"functions":1647,"tar":1648,"containing":1649,"##55":1650,"##MC":1651,"27":1652,"Sta":1653,"trans":1654,"40":1655,"NET":1656,"protection":1657,"Use":1658,"list":1659,"##fs":1660,"50":1661,"allowed":1662,"26":1663,"bin":1664,"##22":1665,"able":1666,"exe":1667,"easier":1668,"sy":1669,"overflows":1670,"RE":1671,"##trusted":1672,"Conn":1673,"##ME":1674,"daemon":1675,"07":1676,"##IN":1677,"processing":1678,"Edition":1679,"##top":1680,"2003":1681,"guest":1682,"##vel":1683,"There":1684,"Stor":1685,"##ron":1686,"##side":1687,"Saf":1688,"Privileg":1689,"handles":1690,"including":1691,"variable":1692,"Corruption":1693,"##IC":1694,"sys":1695,"found":1696,"##dge":1697,"##150":1698,"##viron":1699,"##LS":1700,"Mobile":1701,"Vis":1702,"##ater":1703,"##86":1704,"Si":1705,"email":1706,"84":1707,"52":1708,"Tech":1709,"Execu":1710,"##licy":1711,"library":1712,"Flash":1713,"##ritical":1714,"##AC":1715,"WebKit":1716,"MDM96":1717,"internal":1718,"##vate":1719,"##late":1720,"Admin":1721,"##table":1722,"##con":1723,"Mod":1724,"SA":1725,"bug":1726,"MDM9":1727,"##ics":1728,"##rup":1729,"##fo":1730,"Qu":1731,"CPU":1732,"Center":1733,"well":1734,"##hand":1735,"Core":1736,"loc":1737,"SDK":1738,"would":1739,"change":1740,"redirect":1741,"Scripting":1742,"identif":1743,"TI":1744,"##oll":1745,"depend":1746,"provid":1747,"##lis":1748,"##oom":1749,"improperly":1750,"administrators":1751,"cookie":1752,"##Log":1753,"its":1754,"##read":1755,"##Po":1756,"##ured":1757,"DoS":1758,"target":1759,"cpp":1760,"AIR":1761,"engine":1762,"##14":1763,"##rigin":1764,"##anel":1765,"Jun":1766,"##quent":1767,"##Sp":1768,"##kins":1769,"Solaris":1770,"##ternal":1771,"##ename":1772,"##here":1773,"exploited":1774,"08":1775,"##cap":1776,"##100":1777,"##ler":1778,"##69":1779,"Privilege":1780,"##RE":1781,"vic":1782,"##R2":1783,"##oot":1784,"Execution":1785,"response":1786,"sour":1787,"elevation":1788,"##tan":1789,"##ister":1790,"##unic":1791,"##mit":1792,"Inter":1793,"2007":1794,"Ele":1795,"##mo":1796,"##enkins":1797,"ability":1798,"Sun":1799,"mishand":1800,"##gra":1801,"##udio":1802,"Al":1803,"size":1804,"enable":1805,"clear":1806,"CA":1807,"critical":1808,"way":1809,"##ustom":1810,"##IT":1811,"##tur":1812,"##tribute":1813,"meta":1814,"##Box":1815,"##lob":1816,"##CO":1817,"##IP":1818,"low":1819,"0x":1820,"##man":1821,"##xy":1822,"##net":1823,"##erb":1824,"##anis":1825,"##comm":1826,"##jection":1827,"Applian":1828,"net":1829,"event":1830,"##let":1831,"ext":1832,"non":1833,"Client":1834,"same":1835,"Jenkins":1836,"Platform":1837,"##bedded":1838,"time":1839,"##echanis":1840,"sp":1841,"Injection":1842,"query":1843,"operations":1844,"Free":1845,"pub":1846,"enco":1847,"html":1848,"##less":1849,"mechanis":1850,"Media":1851,"##tream":1852,"##ideo":1853,"1X":1854,"##ray":1855,"wp":1856,"##82":1857,"token":1858,"who":1859,"one":1860,"##vironment":1861,"SAP":1862,"##yp":1863,"##way":1864,"allowing":1865,"Availability":1866,"Thund":1867,"vis":1868,"Adv":1869,"configured":1870,"FTP":1871,"tag":1872,"traffic":1873,"encryp":1874,"##fl":1875,"Safari":1876,"Thunderb":1877,"Image":1878,"##ome":1879,"##ools":1880,"format":1881,"person":1882,"alloc":1883,"##Point":1884,"##37":1885,"##66":1886,"settings":1887,"level":1888,"Thunderbird":1889,"Heap":1890,"##anced":1891,"results":1892,"##ST":1893,"reading":1894,"##time":1895,"arch":1896,"hang":1897,"package":1898,"29":1899,"Sy":1900,"##cel":1901,"ow":1902,"Bl":1903,"text":1904,"##pos":1905,"ag":1906,"##ical":1907,"##lied":1908,"Integer":1909,"Qual":1910,"mo":1911,"##rc":1912,"group":1913,"##tl":1914,"##IG":1915,"##mlink":1916,"##PC":1917,"author":1918,"##uman":1919,"Form":1920,"##BS":1921,"AS":1922,"Sam":1923,"SDM6":1924,"##ock":1925,"##ld":1926,"##andbox":1927,"rece":1928,"ev":1929,"Link":1930,"attribute":1931,"##24":1932,"victim":1933,"##logy":1934,"symlink":1935,"IOS":1936,"##tiv":1937,"##py":1938,"55":1939,"PDF":1940,"##ved":1941,"##01":1942,"##ath":1943,"causes":1944,"Elevation":1945,"31":1946,"06":1947,"block":1948,"modules":1949,"##ets":1950,"##39":1951,"##ara":1952,"##ER":1953,"##ank":1954,"filename":1955,"signific":1956,"being":1957,"includes":1958,"must":1959,"##erial":1960,"cap":1961,"Techno":1962,"35":1963,"significant":1964,"EX":1965,"loop":1966,"##quently":1967,"high":1968,"##CMS":1969,"##umer":1970,"##ative":1971,"##ches":1972,"addressed":1973,"##pc":1974,"##77":1975,"##IX":1976,"restrict":1977,"No":1978,"##03":1979,"##itor":1980,"##app":1981,"macOS":1982,"At":1983,"option":1984,"significantly":1985,"filter":1986,"2006":1987,"SR":1988,"##eys":1989,"##ateway":1990,"##rupal":1991,"##FS":1992,"Edge":1993,"##als":1994,"characters":1995,"DB":1996,"##85":1997,"##oomla":1998,"Win":1999,"##ification":2000,"required":2001,"##rl":2002,"core":2003,"sandbox":2004,"70":2005,"Red":2006,"Applications":2007,"missing":2008,"View":2009,"##74":2010,"Drupal":2011,"Sm":2012,"##AS":2013,"##300":2014,"sequences":2015,"##View":2016,"line":2017,"Disclosure":2018,"Content":2019,"By":2020,"Imp":2021,"##ule":2022,"human":2023,"prev":2024,"Fusion":2025,"VirtualBox":2026,"installation":2027,"template":2028,"releases":2029,"source":2030,"Ether":2031,"Database":2032,"##aster":2033,"##Sphere":2034,"##29":2035,"ActiveX":2036,"Joomla":2037,"##Pro":2038,"operating":2039,"##OR":2040,"##ables":2041,"media":2042,"##temp":2043,"Note":2044,"Appliance":2045,"##aniti":2046,"diss":2047,"XP":2048,"##osp":2049,"supplied":2050,"2000":2051,"##ung":2052,"ESR":2053,"##In":2054,"main":2055,"calls":2056,"tempor":2057,"again":2058,"assisted":2059,"Log":2060,"##07":2061,"##ollow":2062,"##v2":2063,"IDs":2064,"##anager":2065,"##ps":2066,"fields":2067,"Secure":2068,"DOS":2069,"##point":2070,"V500R001C":2071,"##anitiz":2072,"proven":2073,"Qualcomm":2074,"mem":2075,"##structure":2076,"we":2077,"##Re":2078,"stores":2079,"##rastructure":2080,"##res":2081,"resource":2082,"installed":2083,"register":2084,"provenance":2085,"APQ":2086,"applications":2087,"WN":2088,"im":2089,"parser":2090,"actions":2091,"dependent":2092,"DNS":2093,"Portal":2094,"display":2095,"##00R002":2096,"##por":2097,"scripts":2098,"DLL":2099,"pages":2100,"work":2101,"http":2102,"Work":2103,"origin":2104,"Kernel":2105,"##BE":2106,"names":2107,"follow":2108,"Anti":2109,"##vis":2110,"hard":2111,"##sung":2112,"##reen":2113,"parsing":2114,"Read":2115,"##ach":2116,"DC":2117,"##Pl":2118,"##GE":2119,"##act":2120,"Res":2121,"Sp":2122,"against":2123,"Framework":2124,"Denial":2125,"SV":2126,"head":2127,"##ecting":2128,"##ireless":2129,"##bject":2130,"Excel":2131,"##200":2132,"##79":2133,"IN":2134,"also":2135,"IOT":2136,"33":2137,"##tract":2138,"initial":2139,"Real":2140,"If":2141,"##DP":2142,"##iki":2143,"38":2144,"Cer":2145,"Ind":2146,"phys":2147,"##tents":2148,"Build":2149,"retur":2150,"drivers":2151,"##ploy":2152,"show":2153,"attemp":2154,"##BB":2155,"##Name":2156,"Exp":2157,"first":2158,"Pack":2159,"##ero":2160,"keys":2161,"##allery":2162,"Cloud":2163,"##tach":2164,"systems":2165,"CL":2166,"lang":2167,"60":2168,"##other":2169,"mechanism":2170,"element":2171,"smart":2172,"later":2173,"##unts":2174,"##quest":2175,"FP":2176,"GET":2177,"tool":2178,"##cha":2179,"##ma":2180,"Technology":2181,"Plugin":2182,"##ources":2183,"##PN":2184,"2011":2185,"##ua":2186,"##OST":2187,"##ding":2188,"##36":2189,"temporary":2190,"When":2191,"##C00SPC":2192,"leverage":2193,"Intelli":2194,"##ression":2195,"Advanced":2196,"bit":2197,"full":2198,"untrusted":2199,"##line":2200,"##99":2201,"series":2202,"cache":2203,"java":2204,"controll":2205,"dele":2206,"##agick":2207,"tv":2208,"Gateway":2209,"##CU":2210,"their":2211,"logg":2212,"rout":2213,"Desk":2214,"Outside":2215,"bet":2216,"##ses":2217,"Samsung":2218,"Mail":2219,"##OM":2220,"##ony":2221,"##exus":2222,"##ution":2223,"sn":2224,"##key":2225,"##72":2226,"##board":2227,"Format":2228,"##DB":2229,"##EM":2230,"##lick":2231,"Inc":2232,"trusted":2233,"contract":2234,"##ween":2235,"##orm":2236,"Lo":2237,"##inite":2238,"##racter":2239,"V200R008":2240,"dissector":2241,"##ider":2242,"##ish":2243,"between":2244,"partial":2245,"ST":2246,"##flected":2247,"Run":2248,"##46":2249,"sole":2250,"sanitiz":2251,"##wall":2252,"state":2253,"solely":2254,"##IS":2255,"##Ad":2256,"order":2257,"Share":2258,"another":2259,"url":2260,"As":2261,"One":2262,"iT":2263,"##88":2264,"##tics":2265,"##mail":2266,"cal":2267,"##R3":2268,"##very":2269,"patch":2270,"glob":2271,"##Co":2272,"pay":2273,"private":2274,"contents":2275,"##CM":2276,"##Tools":2277,"tvOS":2278,"Nexus":2279,"custom":2280,"##PE":2281,"##71":2282,"El":2283,"CAN":2284,"##PS":2285,"US":2286,"external":2287,"V200R007":2288,"headers":2289,"identified":2290,"##cp":2291,"executed":2292,"Process":2293,"##oard":2294,"##rypto":2295,"fre":2296,"##velo":2297,"To":2298,"##ically":2299,"subset":2300,"handled":2301,"character":2302,"Power":2303,"##ont":2304,"ap":2305,"byte":2306,"##ews":2307,"##tac":2308,"they":2309,"64":2310,"Class":2311,"Cons":2312,"chang":2313,"##raphics":2314,"sent":2315,"##ward":2316,"##jax":2317,"Products":2318,"##hed":2319,"##ask":2320,"Vista":2321,"metacha":2322,"SIP":2323,"##Ex":2324,"print":2325,"Embedded":2326,"POST":2327,"##roved":2328,"reload":2329,"Hosp":2330,"##R1":2331,"VMware":2332,"sel":2333,"checks":2334,"infinite":2335,"table":2336,"##Serv":2337,"typ":2338,"##Version":2339,"CSCu":2340,"##older":2341,"installations":2342,"##02":2343,"uns":2344,"receiv":2345,"SDX":2346,"lim":2347,"##File":2348,"lock":2349,"##tivity":2350,"metacharacters":2351,"PL":2352,"##CT":2353,"##ateg":2354,"##cape":2355,"array":2356,"util":2357,"##onitor":2358,"##itle":2359,"struc":2360,"##ample":2361,"##annel":2362,"##ocia":2363,"LD":2364,"##sp":2365,"Inf":2366,"comment":2367,"GN":2368,"Middle":2369,"improved":2370,"##98":2371,"modified":2372,"parse":2373,"CSCv":2374,"resources":2375,"V500R002":2376,"Hospit":2377,"v1":2378,"were":2379,"##47":2380,"##roj":2381,"unin":2382,"Anal":2383,"accessing":2384,"Hospitality":2385,"45":2386,"##ht":2387,"lis":2388,"tak":2389,"##DR":2390,"authorization":2391,"##YS":2392,"Controller":2393,"##ran":2394,"##afe":2395,"##AU":2396,"SN":2397,"Quick":2398,"SharePoint":2399,"##Versions":2400,"jsp":2401,"Auto":2402,"Found":2403,"##uage":2404,"##unes":2405,"AndroidVersions":2406,"V200R008C":2407,"ZDI":2408,"Oper":2409,"##DE":2410,"##US":2411,"Add":2412,"##ffected":2413,"##FF":2414,"operation":2415,"accounts":2416,"return":2417,"##23":2418,"make":2419,"Mess":2420,"cleartext":2421,"IM":2422,"##oto":2423,"##lib":2424,"##endar":2425,"iTunes":2426,"Per":2427,"QCS":2428,"dir":2429,"post":2430,"36":2431,"##XE":2432,"db":2433,"##tering":2434,"fails":2435,"##81":2436,"##uthentication":2437,"##rojan":2438,"Agent":2439,"##ext":2440,"##its":2441,"watch":2442,"Ass":2443,"##ke":2444,"##GI":2445,"Unified":2446,"##irectories":2447,"RC":2448,"##ole":2449,"##Cloud":2450,"##Manager":2451,"Autom":2452,"Improper":2453,"record":2454,"##complete":2455,"##44":2456,"##ties":2457,"insecure":2458,"Trojan":2459,"##Android":2460,"filesystem":2461,"platform":2462,"environment":2463,"Trans":2464,"##ferences":2465,"aut":2466,"IPv":2467,"Middleware":2468,"AR":2469,"##TS":2470,"profile":2471,"disabled":2472,"hor":2473,"Fin":2474,"##try":2475,"##ates":2476,"prevent":2477,"binary":2478,"Script":2479,"repe":2480,"attach":2481,"##95":2482,"##Logic":2483,"involves":2484,"Wir":2485,"##site":2486,"sec":2487,"Git":2488,"force":2489,"weak":2490,"##tus":2491,"SIM":2492,"Swit":2493,"cc":2494,"##ne":2495,"archive":2496,"##76":2497,"failure":2498,"directories":2499,"tmp":2500,"##list":2501,"##gn":2502,"##Magick":2503,"WebSphere":2504,"termin":2505,"202":2506,"wr":2507,"##elp":2508,"##change":2509,"Fox":2510,"##ebug":2511,"pres":2512,"arguments":2513,"ms":2514,"release":2515,"ip":2516,"##fig":2517,"##unity":2518,"supported":2519,"Hat":2520,"Authentication":2521,"##irus":2522,"node":2523,"##C10":2524,"##Server":2525,"##31":2526,"Over":2527,"##tended":2528,"##amer":2529,"payload":2530,"##tra":2531,"Desktop":2532,"Library":2533,"horse":2534,"Rec":2535,"##ular":2536,"##df":2537,"services":2538,"TLS":2539,"executable":2540,"support":2541,"Consumer":2542,"Dev":2543,"su":2544,"##lying":2545,"PeopleTools":2546,"##avas":2547,"public":2548,"IF":2549,"should":2550,"##pri":2551,"thus":2552,"##iff":2553,"##90":2554,"##BCO":2555,"APP":2556,"V200R006":2557,"protocols":2558,"cod":2559,"##800":2560,"##ational":2561,"Coll":2562,"TIBCO":2563,"star":2564,"##now":2565,"##onkey":2566,"remo":2567,"proxy":2568,"##mantec":2569,"##DS":2570,"reset":2571,"Administra":2572,"##avascript":2573,"Symantec":2574,"##tab":2575,"render":2576,"policy":2577,"2005":2578,"modifying":2579,"##amp":2580,"appear":2581,"TE":2582,"##port":2583,"##esh":2584,"MDM920":2585,"associa":2586,"zero":2587,"handler":2588,"Ver":2589,"leads":2590,"previous":2591,"34":2592,"##ls":2593,"##eg":2594,"project":2595,"##pected":2596,"about":2597,"44":2598,"Pre":2599,"##oken":2600,"Foxit":2601,"Set":2602,"AL":2603,"##md":2604,"##73":2605,"##RA":2606,"82":2607,"##map":2608,"Protocol":2609,"##sole":2610,"det":2611,"mobile":2612,"##vailable":2613,"##ATH":2614,"##ade":2615,"MP":2616,"Man":2617,"##tc":2618,"##MI":2619,"##tage":2620,"##orts":2621,"##ndard":2622,"Bank":2623,"stream":2624,"beta":2625,"##ared":2626,"##oice":2627,"##aM":2628,"##bers":2629,"##ipul":2630,"occurs":2631,"mishandles":2632,"Communic":2633,"xml":2634,"Runtime":2635,"Wh":2636,"##server":2637,"Id":2638,"##lus":2639,"##26":2640,"##WE":2641,"connections":2642,"ajax":2643,"##ters":2644,"Affected":2645,"##hine":2646,"##enc":2647,"watchOS":2648,"base":2649,"Networks":2650,"410":2651,"disclo":2652,"##wei":2653,"iP":2654,"CVEs":2655,"820":2656,"##PO":2657,"##Web":2658,"Tele":2659,"##ync":2660,"##uawei":2661,"##rix":2662,"instan":2663,"Object":2664,"##cket":2665,"manipul":2666,"GNU":2667,"determin":2668,"resta":2669,"Rele":2670,"##rick":2671,"##51":2672,"channel":2673,"EMC":2674,"listed":2675,"title":2676,"##aun":2677,"WebLogic":2678,"HPE":2679,"copy":2680,"SSH":2681,"BIG":2682,"##ivo":2683,"V100R001C":2684,"Huawei":2685,"SC":2686,"##83":2687,"creation":2688,"Ethere":2689,"##iting":2690,"below":2691,"console":2692,"bl":2693,"specified":2694,"##tall":2695,"Request":2696,"SeaM":2697,"side":2698,"##700":2699,"SeaMonkey":2700,"click":2701,"v3":2702,"Storage":2703,"##BSD":2704,"news":2705,"##GEAR":2706,"##unk":2707,"##ATIC":2708,"py":2709,"##otes":2710,"NETGEAR":2711,"53":2712,"causing":2713,"Analy":2714,"SIMATIC":2715,"##ql":2716,"entry":2717,"##605":2718,"crypto":2719,"frame":2720,"##uble":2721,"embed":2722,"##ums":2723,"Policy":2724,"##book":2725,"##ond":2726,"sequence":2727,"own":2728,"RB":2729,"##ense":2730,"Hy":2731,"##ancial":2732,"Name":2733,"Wireless":2734,"##ati":2735,"descrip":2736,"Back":2737,"##river":2738,"subsystem":2739,"Config":2740,"##orld":2741,"##LEX":2742,"##Image":2743,"debug":2744,"Graphics":2745,"##iper":2746,"##ium":2747,"pos":2748,"##tected":2749,"Was":2750,"visit":2751,"folder":2752,"reve":2753,"##ustri":2754,"Wi":2755,"Foundation":2756,"100":2757,"##view":2758,"communic":2759,"SDA":2760,"Search":2761,"even":2762,"CLI":2763,"video":2764,"QCA":2765,"##Sh":2766,"hash":2767,"former":2768,"Financial":2769,"virtual":2770,"XXE":2771,"trick":2772,"##IA":2773,"##code":2774,"Elect":2775,"Console":2776,"property":2777,"pathname":2778,"##ustrial":2779,"300":2780,"##607":2781,"sessions":2782,"ImageMagick":2783,"Banking":2784,"DH":2785,"FLEX":2786,"LDAP":2787,"plain":2788,"##tant":2789,"Type":2790,"##tings":2791,"common":2792,"creating":2793,"caused":2794,"##boot":2795,"56":2796,"Fi":2797,"##Fix":2798,"received":2799,"incomplete":2800,"them":2801,"requires":2802,"Interface":2803,"controlled":2804,"##ategory":2805,"##cat":2806,"##fil":2807,"##aces":2808,"Juniper":2809,"associated":2810,"rc":2811,"Viewer":2812,"executes":2813,"NT":2814,"expo":2815,"##ures":2816,"location":2817,"formerly":2818,"SU":2819,"Module":2820,"##assword":2821,"addresses":2822,"uploading":2823,"br":2824,"encryption":2825,"##41":2826,"SNMP":2827,"signature":2828,"Smart":2829,"Industrial":2830,"##LF":2831,"controller":2832,"High":2833,"##aw":2834,"entity":2835,"##ublis":2836,"Junos":2837,"##isk":2838,"##tect":2839,"Multi":2840,"auth":2841,"fl":2842,"enfor":2843,"screen":2844,"V3":2845,"Protection":2846,"1511":2847,"CAF":2848,"Fir":2849,"Key":2850,"PATH":2851,"##De":2852,"##ints":2853,"Fil":2854,"agent":2855,"##back":2856,"components":2857,"options":2858,"##irc":2859,"54":2860,"framework":2861,"##sequently":2862,"##CUBE":2863,"Certain":2864,"FLEXCUBE":2865,"ste":2866,"tim":2867,"URLs":2868,"Op":2869,"Untrusted":2870,"##EN":2871,"Iden":2872,"##33":2873,"seg":2874,"router":2875,"##ading":2876,"41":2877,"passed":2878,"Cent":2879,"JRE":2880,"##UI":2881,"APPLE":2882,"Mag":2883,"structure":2884,"Xen":2885,"##ectivity":2886,"restricted":2887,"connect":2888,"Express":2889,"VPN":2890,"##28":2891,"##Lab":2892,"##ones":2893,"manager":2894,"Rout":2895,"more":2896,"reflected":2897,"##ched":2898,"St":2899,"dia":2900,"67":2901,"cat":2902,"##AX":2903,"sites":2904,"##pro":2905,"##tpd":2906,"65":2907,"provided":2908,"TY":2909,"##lies":2910,"Uni":2911,"V500R001C20":2912,"##eshark":2913,"##can":2914,"##race":2915,"Wireshark":2916,"clients":2917,"serial":2918,"##sers":2919,"deploy":2920,"SYS":2921,"##cher":2922,"Component":2923,"mag":2924,"##ura":2925,"51":2926,"##Admin":2927,"determine":2928,"PC":2929,"Sub":2930,"##GP":2931,"Tr":2932,"available":2933,"##xx":2934,"##names":2935,"encoded":2936,"Infrastructure":2937,"RSA":2938,"##lin":2939,"##PEG":2940,"etc":2941,"##27":2942,"##amera":2943,"Mark":2944,"Rational":2945,"outside":2946,"Command":2947,"Simple":2948,"Nove":2949,"issues":2950,"V6":2951,"##21":2952,"logs":2953,"700":2954,"##Token":2955,"##iler":2956,"##tact":2957,"##ules":2958,"##00R006":2959,"section":2960,"##thon":2961,"##00000000":2962,"QR":2963,"SX":2964,"variables":2965,"scan":2966,"Common":2967,"Switches":2968,"##luster":2969,"whe":2970,"##uted":2971,"programs":2972,"master":2973,"test":2974,"##db":2975,"##ries":2976,"##endor":2977,"directly":2978,"##tis":2979,"##ynam":2980,"null":2981,"##ou":2982,"##DA":2983,"altering":2984,"backup":2985,"reboot":2986,"##IF":2987,"##VM":2988,"##Ac":2989,"##erson":2990,"org":2991,"##ced":2992,"MDM9607":2993,"##andom":2994,"processes":2995,"MSM8909":2996,"##Player":2997,"brute":2998,"start":2999,"End":3000,"part":3001,"##igned":3002,"Classic":3003,"GP":3004,"2009":3005,"reference":3006,"Mode":3007,"##Ch":3008,"1607":3009,"expression":3010,"NV":3011,"##graph":3012,"example":3013,"signed":3014,"frequently":3015,"##OP":3016,"##84":3017,"Email":3018,"starting":3019,"Group":3020,"IS":3021,"##atable":3022,"##32k":3023,"Identity":3024,"We":3025,"##ose":3026,"##com":3027,"##itialized":3028,"src":3029,"##uard":3030,"##ishing":3031,"##estricted":3032,"##ivoli":3033,"Doc":3034,"Tivoli":3035,"##uid":3036,"##rypt":3037,"Video":3038,"##istent":3039,"Community":3040,"##vision":3041,"UDP":3042,"whether":3043,"Post":3044,"repeatable":3045,"Hyper":3046,"37":3047,"Di":3048,"Py":3049,"##61":3050,"ASA":3051,"Driver":3052,"##FTP":3053,"plugins":3054,"##sed":3055,"images":3056,"##nowled":3057,"210":3058,"##wd":3059,"##ital":3060,"845":3061,"842":3062,"sandboxed":3063,"physical":3064,"MDM9206":3065,"Prof":3066,"owner":3067,"62":3068,"Cata":3069,"JS":3070,"bu":3071,"circ":3072,"laun":3073,"st":3074,"v2":3075,"status":3076,"CRM":3077,"##ever":3078,"prob":3079,"Ethereum":3080,"8u":3081,"race":3082,"##abor":3083,"47":3084,"Get":3085,"RPC":3086,"vendor":3087,"##CC":3088,"##uby":3089,"Or":3090,"beh":3091,"##usic":3092,"##fficult":3093,"escape":3094,"known":3095,"multi":3096,"secure":3097,"##sol":3098,"##Time":3099,"##05":3100,"##ento":3101,"##SSL":3102,"##witch":3103,"TYPO":3104,"retri":3105,"forum":3106,"68":3107,"iCloud":3108,"V500R001":3109,"##ception":3110,"##junction":3111,"##Mail":3112,"conjunction":3113,"modification":3114,"shared":3115,"machine":3116,"TYPO3":3117,"save":3118,"##uet":3119,"submit":3120,"IPv6":3121,"go":3122,"##ES":3123,"##restricted":3124,"website":3125,"retrie":3126,"Adap":3127,"Par":3128,"iFix":3129,"7u":3130,"86":3131,"CGI":3132,"underlying":3133,"##tinu":3134,"##ooth":3135,"212":3136,"##For":3137,"conv":3138,"Repor":3139,"OpenS":3140,"Compute":3141,"Device":3142,"##ody":3143,"compromis":3144,"CF":3145,"phishing":3146,"top":3147,"neg":3148,"48":3149,"Fix":3150,"##grade":3151,"font":3152,"##59":3153,"accep":3154,"Systems":3155,"MDM9650":3156,"##34":3157,"1X53":3158,"writ":3159,"##haus":3160,"012":3161,"##link":3162,"##erce":3163,"fs":3164,"item":3165,"##ume":3166,"##809":3167,"performing":3168,"api":3169,"Gener":3170,"Firewall":3171,"reported":3172,"endpoint":3173,"UN":3174,"XE":3175,"sim":3176,"##LO":3177,"logon":3178,"V200R007C00":3179,"restart":3180,"46":3181,"window":3182,"world":3183,"##ecur":3184,"##velop":3185,"men":3186,"col":3187,"##pping":3188,"##ented":3189,"BI":3190,"cf":3191,"rated":3192,"##gor":3193,"Photo":3194,"Patch":3195,"##dec":3196,"##ticle":3197,"checking":3198,"##bound":3199,"prox":3200,"##ined":3201,"report":3202,"logging":3203,"Mc":3204,"info":3205,"cookies":3206,"HF":3207,"how":3208,"##My":3209,"Intelligent":3210,"V500R002C00":3211,"sw":3212,"##AM":3213,"android":3214,"point":3215,"76":3216,"##Panel":3217,"##lex":3218,"Project":3219,"##NG":3220,"Connect":3221,"##Service":3222,"Communications":3223,"##845":3224,"Integra":3225,"output":3226,"pred":3227,"allocation":3228,"GitLab":3229,"##uetooth":3230,"39":3231,"hos":3232,"##data":3233,"##Wiki":3234,"Direct":3235,"##vo":3236,"hostname":3237,"language":3238,"##avig":3239,"INF":3240,"Novell":3241,"##tead":3242,"1703":3243,"Insufficient":3244,"reveals":3245,"Bro":3246,"exhaus":3247,"V600R006":3248,"##56":3249,"##cker":3250,"##ake":3251,"##ru":3252,"##nect":3253,"##station":3254,"Environment":3255,"Publis":3256,"correct":3257,"##Engine":3258,"Automation":3259,"Difficult":3260,"1R":3261,"75":3262,"##urther":3263,"##nowledge":3264,"ioc":3265,"##SM":3266,"strings":3267,"Incorrect":3268,"While":3269,"Music":3270,"ep":3271,"##fix":3272,"##rowser":3273,"uninitialized":3274,"##ince":3275,"emp":3276,"##igital":3277,"425":3278,"010":3279,"Monitor":3280,"Panel":3281,"decod":3282,"controls":3283,"Backup":3284,"Universal":3285,"case":3286,"thread":3287,"205":3288,"administration":3289,"MSM8996":3290,"##asic":3291,"##imate":3292,"835":3293,"SO":3294,"##Data":3295,"##ingle":3296,"Exchange":3297,"infrastructure":3298,"tw":3299,"x86":3300,"disk":3301,"verification":3302,"##icket":3303,"Overflow":3304,"Collabor":3305,"fault":3306,"##rend":3307,"##ough":3308,"consequently":3309,"10Android":3310,"Gallery":3311,"Node":3312,"category":3313,"##ays":3314,"created":3315,"##tils":3316,"norm":3317,"##lip":3318,"elements":3319,"##solute":3320,"NX":3321,"instead":3322,"incorrectly":3323,"SMB":3324,"99":3325,"IR":3326,"Tool":3327,"##uke":3328,"##LAN":3329,"##anic":3330,"##rop":3331,"##ably":3332,"##Comm":3333,"##gorith":3334,"##Fi":3335,"expos":3336,"##user":3337,"validating":3338,"many":3339,"##actory":3340,"logged":3341,"types":3342,"##87":3343,"2004":3344,"##over":3345,"##fee":3346,"encrypted":3347,"predic":3348,"backend":3349,"Session":3350,"random":3351,"##cul":3352,"##vated":3353,"##aged":3354,"##unc":3355,"##odle":3356,"CU":3357,"Password":3358,"##hes":3359,"DHCP":3360,"Voice":3361,"##Afee":3362,"##500":3363,"##To":3364,"executing":3365,"##acing":3366,"##tification":3367,"##4300":3368,"McAfee":3369,"43":3370,"bal":3371,"##page":3372,"distrib":3373,"decode":3374,"Start":3375,"physically":3376,"portal":3377,"##lets":3378,"WNDR":3379,"attempts":3380,"deletion":3381,"V200R006C10":3382,"Magento":3383,"socket":3384,"my":3385,"##Sta":3386,"##ton":3387,"##ights":3388,"Def":3389,"Compiler":3390,"magic":3391,"##DK":3392,"##itory":3393,"setup":3394,"Cy":3395,"##ents":3396,"Connectivity":3397,"Local":3398,"625":3399,"##raries":3400,"##pper":3401,"triggered":3402,"##virus":3403,"ASP":3404,"##TR":3405,"##Type":3406,"repl":3407,"instance":3408,"gu":3409,"##iers":3410,"##67":3411,"store":3412,"elevated":3413,"MSM8909W":3414,"IC":3415,"role":3416,"APQ809":3417,"working":3418,"ioctl":3419,"boot":3420,"further":3421,"##TI":3422,"##rid":3423,"##vileged":3424,"min":3425,"##68":3426,"##660":3427,"embedded":3428,"proximate":3429,"MI":3430,"##sl":3431,"##omain":3432,"globals":3433,"Ruby":3434,"sl":3435,"##FX":3436,"##reat":3437,"##eover":3438,"attachment":3439,"Studio":3440,"##ral":3441,"##akra":3442,"##essional":3443,"Chakra":3444,"##AD":3445,"##riting":3446,"##tence":3447,"PRO":3448,"quotes":3449,"JR":3450,"Jet":3451,"News":3452,"##serv":3453,"Reg":3454,"Entity":3455,"escalate":3456,"Address":3457,"49":3458,"##gence":3459,"SP4":3460,"processed":3461,"events":3462,"##privileged":3463,"JB":3464,"##38":3465,"##ines":3466,"External":3467,"##pository":3468,"communication":3469,"protected":3470,"##print":3471,"##untu":3472,"##expected":3473,"Bluetooth":3474,"flag":3475,"Beta":3476,"statem":3477,"triggering":3478,"responses":3479,"Host":3480,"double":3481,"spoofing":3482,"Install":3483,"##Core":3484,"##esk":3485,"construc":3486,"import":3487,"locations":3488,"mishandled":3489,"coders":3490,"Cal":3491,"Pr":3492,"home":3493,"manage":3494,"tools":3495,"DIR":3496,"PAN":3497,"probably":3498,"Bit":3499,"##Scan":3500,"##92":3501,"unexpected":3502,"Unknown":3503,"subject":3504,"bytes":3505,"Firmware":3506,"Professional":3507,"##tyle":3508,"##ips":3509,"SRX":3510,"Race":3511,"##az":3512,"##sta":3513,"methods":3514,"SDM660":3515,"##EMU":3516,"57":3517,"links":3518,"allocated":3519,"SVE":3520,"QEMU":3521,"clo":3522,"map":3523,"##mb":3524,"proble":3525,"pop":3526,"Adaptive":3527,"job":3528,"##Center":3529,"MIT":3530,"panic":3531,"##use":3532,"##istory":3533,"##ready":3534,"Cre":3535,"Edit":3536,"QCS605":3537,"409":3538,"66":3539,"Record":3540,"Analytics":3541,"TL":3542,"##PM":3543,"Store":3544,"##tinuous":3545,"840":3546,"rest":3547,"##IM":3548,"static":3549,"specify":3550,"Cl":3551,"tags":3552,"plaintext":3553,"##ah":3554,"##SL":3555,"##yc":3556,"301":3557,"conditions":3558,"APQ80":3559,"59":3560,"##ors":3561,"unprivileged":3562,"creates":3563,"##axim":3564,"sniff":3565,"AD":3566,"si":3567,"##ASE":3568,"##laim":3569,"member":3570,"V200R008C20":3571,"415":3572,"exist":3573,"cPanel":3574,"ns":3575,"SEC":3576,"Publisher":3577,"58":3578,"EOS":3579,"targe":3580,"##AB":3581,"##ike":3582,"mark":3583,"already":3584,"maliciously":3585,"queries":3586,"limit":3587,"platforms":3588,"JSON":3589,"450":3590,"phpMy":3591,"sends":3592,"Easy":3593,"REST":3594,"mint":3595,"##ertion":3596,"##lish":3597,"430":3598,"98":3599,"Write":3600,"flo":3601,"##atic":3602,"##ft":3603,"existence":3604,"Document":3605,"##UT":3606,"advis":3607,"##umstan":3608,"circumstan":3609,"balance":3610,"corrup":3611,"help":3612,"refer":3613,"##coded":3614,"HTTPS":3615,"Prior":3616,"Antivirus":3617,"CO":3618,"##uting":3619,"Unrestricted":3620,"extensions":3621,"##Config":3622,"empty":3623,"pdf":3624,"Endpoint":3625,"##FC":3626,"Plus":3627,"##avi":3628,"space":3629,"USB":3630,"##gnos":3631,"Due":3632,"Intelligence":3633,"task":3634,"algorith":3635,"capability":3636,"DB2":3637,"sanitize":3638,"takeover":3639,"Custom":3640,"cmd":3641,"remotely":3642,"cryptograph":3643,"MSM8996AU":3644,"circumstances":3645,"Trend":3646,"SDA660":3647,"launch":3648,"Air":3649,"MX":3650,"real":3651,"##IDIA":3652,"templates":3653,"calcul":3654,"WP":3655,"fire":3656,"##val":3657,"##ision":3658,"upgrade":3659,"dissectors":3660,"Python":3661,"Lif":3662,"ou":3663,"##Id":3664,"Moodle":3665,"LAN":3666,"##Stor":3667,"apps":3668,"sever":3669,"RealPlayer":3670,"Bypass":3671,"Author":3672,"Asset":3673,"Releases":3674,"Configuration":3675,"NVIDIA":3676,"targeted":3677,"61":3678,"javascript":3679,"##App":3680,"##NC":3681,"63":3682,"Fe":3683,"recur":3684,"##AV":3685,"##liz":3686,"400":3687,"##cl":3688,"##User":3689,"##TEM":3690,"QRD":3691,"##be":3692,"##NA":3693,"phone":3694,"detection":3695,"##Access":3696,"outage":3697,"audio":3698,"sk":3699,"errors":3700,"tokens":3701,"SDM630":3702,"following":3703,"epan":3704,"Source":3705,"panel":3706,"theme":3707,"off":3708,"PLAT":3709,"V100R001C10":3710,"##93":3711,"##apping":3712,"negative":3713,"##ret":3714,"##elf":3715,"##ayout":3716,"libav":3717,"ACL":3718,"provides":3719,"##mount":3720,"Sign":3721,"init":3722,"those":3723,"Forum":3724,"Message":3725,"INFO":3726,"mintToken":3727,"V8":3728,"claim":3729,"sufficient":3730,"##PDF":3731,"##LC":3732,"implement":3733,"score":3734,"Deploy":3735,"encoding":3736,"78":3737,"giv":3738,"##pm":3739,"##OD":3740,"##oth":3741,"##tries":3742,"Visual":3743,"0x00000000":3744,"000":3745,"Mee":3746,"##UR":3747,"##ilar":3748,"##admin":3749,"##istry":3750,"008":3751,"deserial":3752,"V200R008C30":3753,"SUSE":3754,"me":3755,"##Tra":3756,"##icon":3757,"SYSTEM":3758,"Download":3759,"Pa":3760,"Upload":3761,"exception":3762,"loading":3763,"USG":3764,"##velopment":3765,"CM":3766,"estab":3767,"FreeBSD":3768,"changes":3769,"##iol":3770,"TIFF":3771,"##eting":3772,"##94":3773,"##atures":3774,"installer":3775,"included":3776,"##636":3777,"Attack":3778,"SDX20":3779,"disclose":3780,"Router":3781,"exhaustion":3782,"650":3783,"##aver":3784,"##WS":3785,"storage":3786,"menu":3787,"AT":3788,"E0":3789,"Origin":3790,"rev":3791,"##izer":3792,"Proxy":3793,"track":3794,"provide":3795,"Team":3796,"comments":3797,"Manage":3798,"850":3799,"did":3800,"sus":3801,"##Path":3802,"##ffers":3803,"leg":3804,"V200R007C":3805,"V600R006C00":3806,"Board":3807,"av":3808,"frag":3809,"gpc":3810,"##KE":3811,"##look":3812,"logic":3813,"bar":3814,"##ba":3815,"##v3":3816,"ind":3817,"Info":3818,"usernames":3819,"2002":3820,"adding":3821,"Standard":3822,"hardcoded":3823,"V500R001C20SPC":3824,"##Set":3825,"##power":3826,"##Code":3827,"forward":3828,"OpenSSL":3829,"advisory":3830,"##sive":3831,"persu":3832,"CON":3833,"mp":3834,"##omp":3835,"##ness":3836,"##110":3837,"##tend":3838,"assertion":3839,"Check":3840,"FF":3841,"Live":3842,"Same":3843,"##EC":3844,"servlet":3845,"chunk":3846,"Ab":3847,"JPEG":3848,"Pay":3849,"##Net":3850,"##7800":3851,"global":3852,"EM":3853,"So":3854,"win":3855,"implemen":3856,"QuickTime":3857,"##ynamic":3858,"Sk":3859,"wid":3860,"##not":3861,"Firepower":3862,"msg":3863,"similar":3864,"firewall":3865,"persuading":3866,"XR":3867,"io":3868,"##oss":3869,"##info":3870,"applets":3871,"confusion":3872,"##pha":3873,"regular":3874,"Virtualization":3875,"editor":3876,"Virus":3877,"118":3878,"followed":3879,"routers":3880,"present":3881,"remove":3882,"R6":3883,"##Port":3884,"##EA":3885,"setuid":3886,"steal":3887,"##ycle":3888,"bro":3889,"##6150":3890,"##04":3891,"##ift":3892,"libs":3893,"Cit":3894,"UX":3895,"und":3896,"##57":3897,"injecting":3898,"Retail":3899,"Win32k":3900,"##avior":3901,"Guest":3902,"spl":3903,"##mpeg":3904,"enti":3905,"Hot":3906,"oc":3907,"two":3908,"AIX":3909,"He":3910,"Port":3911,"tcp":3912,"##sc":3913,"##fd":3914,"accessed":3915,"entries":3916,"NetW":3917,"##veloper":3918,"85":3919,"Ker":3920,"Mat":3921,"dem":3922,"##En":3923,"##130":3924,"##ueue":3925,"##elnet":3926,"##amed":3927,"leveraged":3928,"##429":3929,"Point":3930,"Stored":3931,"Digital":3932,"feed":3933,"calendar":3934,"Teleph":3935,"Home":3936,"##CR":3937,"##tes":3938,"##round":3939,"##inger":3940,"autom":3941,"AM":3942,"txt":3943,"##utils":3944,"active":3945,"commit":3946,"Marketing":3947,"Tools":3948,"el":3949,"act":3950,"##lig":3951,"##aving":3952,"initialize":3953,"Reporting":3954,"##ging":3955,"##vc":3956,"count":3957,"##ually":3958,"##crypted":3959,"single":3960,"##gre":3961,"Bin":3962,"EC":3963,"coll":3964,"Any":3965,"calling":3966,"##SER":3967,"Administration":3968,"appears":3969,"guess":3970,"Browser":3971,"wireless":3972,"##ashboard":3973,"Known":3974,"Min":3975,"V4":3976,"Valid":3977,"upon":3978,"var":3979,"After":3980,"Dell":3981,"Hor":3982,"blog":3983,"##ni":3984,"##54":3985,"##lean":3986,"##used":3987,"uploaded":3988,"eval":3989,"Ethernet":3990,"SVG":3991,"Lot":3992,"range":3993,"invok":3994,"##439":3995,"##gin":3996,"##v4":3997,"##elper":3998,"Servers":3999,"CRLF":4000,"problem":4001,"Javascript":4002,"adj":4003,"container":4004,"V500R001C00":4005,"existing":4006,"##Info":4007,"camera":4008,"offs":4009,"Reflected":4010,"descriptor":4011,"Citrix":4012,"2X":4013,"navig":4014,"##List":4015,"##HT":4016,"##ons":4017,"contact":4018,"Login":4019,"enforce":4020,"segmentation":4021,"ed":4022,"##down":4023,"##earch":4024,"##abric":4025,"##uter":4026,"##ebel":4027,"##tring":4028,"called":4029,"various":4030,"exposure":4031,"behavior":4032,"Collaboration":4033,"CWE":4034,"Event":4035,"body":4036,"##pre":4037,"##00v2":4038,"libraries":4039,"configura":4040,"Siebel":4041,"attributes":4042,"dump":4043,"ach":4044,"##olution":4045,"##istration":4046,"SSRF":4047,"cryptographic":4048,"Lotus":4049,"tc":4050,"Continuous":4051,"Forti":4052,"sniffing":4053,"BGP":4054,"FI":4055,"References":4056,"3049":4057,"dialog":4058,"1000":4059,"615":4060,"DE":4061,"##R11":4062,"##XX":4063,"119":4064,"##anguage":4065,"changing":4066,"retrieve":4067,"readable":4068,"consider":4069,"Online":4070,"achie":4071,"Ne":4072,"TP":4073,"bind":4074,"card":4075,"##RP":4076,"##inux":4077,"article":4078,"204":4079,"CSCt":4080,"decrypt":4081,"FFmpeg":4082,"90":4083,"##ker":4084,"##06":4085,"export":4086,"Opera":4087,"S7":4088,"##Text":4089,"Inv":4090,"specifiers":4091,"Administrator":4092,"located":4093,"Electron":4094,"S3":4095,"he":4096,"ol":4097,"##tle":4098,"##kit":4099,"##ants":4100,"Dec":4101,"Kit":4102,"Next":4103,"safe":4104,"##8150":4105,"##RO":4106,"disable":4107,"aspx":4108,"Outlook":4109,"##ective":4110,"inside":4111,"##ixel":4112,"making":4113,"GUI":4114,"Audio":4115,"wild":4116,"##etch":4117,"transfer":4118,"distributed":4119,"configurations":4120,"cp":4121,"##utions":4122,"##gration":4123,"##NE":4124,"##encrypted":4125,"##isor":4126,"Lite":4127,"find":4128,"like":4129,"pe":4130,"rules":4131,"play":4132,"Traversal":4133,"mount":4134,"BS":4135,"##oh":4136,"##Te":4137,"Descrip":4138,"419":4139,"gran":4140,"##CE":4141,"##odes":4142,"##iscovery":4143,"##peg":4144,"MDM9640":4145,"original":4146,"unintended":4147,"418":4148,"CH":4149,"IT":4150,"MD":4151,"both":4152,"##pace":4153,"cannot":4154,"Tom":4155,"amount":4156,"mys":4157,"match":4158,"placing":4159,"identifier":4160,"attempt":4161,"820A":4162,"Telephony":4163,"79":4164,"monitor":4165,"##LM":4166,"##acent":4167,"Support":4168,"leaks":4169,"How":4170,"Page":4171,"Sec":4172,"##Object":4173,"##IO":4174,"##Al":4175,"##web":4176,"##ending":4177,"Moj":4178,"Networking":4179,"Sch":4180,"##ira":4181,"##terisk":4182,"##amily":4183,"##ipher":4184,"SM8150":4185,"Text":4186,"Ag":4187,"cl":4188,"##OO":4189,"##58":4190,"##ulle":4191,"standard":4192,"ESX":4193,"##ockw":4194,"Basic":4195,"MQ":4196,"RV":4197,"box":4198,"##Stream":4199,"##710":4200,"libx":4201,"SMTP":4202,"mechanisms":4203,"UNIX":4204,"Ul":4205,"##anner":4206,"lacks":4207,"##arab":4208,"adjacent":4209,"However":4210,"Big":4211,"GDI":4212,"##host":4213,"183":4214,"SDM429":4215,"##CTL":4216,"predictable":4217,"JBoss":4218,"843":4219,"dw":4220,"gallery":4221,"knowledge":4222,"##cast":4223,"##NT":4224,"ref":4225,"SDM439":4226,"Workstation":4227,"Electric":4228,"switch":4229,"tab":4230,"##beros":4231,"APIs":4232,"##string":4233,"members":4234,"second":4235,"MIME":4236,"OP":4237,"WS":4238,"##mark":4239,"##52":4240,"##term":4241,"WebEx":4242,"extrac":4243,"deleted":4244,"limited":4245,"##ulletin":4246,"Path":4247,"zip":4248,"##son":4249,"unencrypted":4250,"##urve":4251,"https":4252,"V500R002C00SPC":4253,"72":4254,"##91":4255,"QCS40":4256,"##lina":4257,"exposed":4258,"83":4259,"92":4260,"CN":4261,"Cor":4262,"cases":4263,"##set":4264,"coded":4265,"##rames":4266,"##ocation":4267,"V200R003":4268,"needs":4269,"Calendar":4270,"Book":4271,"CSS":4272,"mat":4273,"upd":4274,"##ep":4275,"##Client":4276,"##Network":4277,"##ering":4278,"##tures":4279,"take":4280,"Wearab":4281,"older":4282,"Wearables":4283,"Blog":4284,"SXR11":4285,"phpMyAdmin":4286,"had":4287,"##rm":4288,"##sw":4289,"##Link":4290,"conver":4291,"released":4292,"Processing":4293,"Guard":4294,"Gra":4295,"LTS":4296,"Squ":4297,"layout":4298,"##CH":4299,"##lio":4300,"small":4301,"iPad":4302,"##aring":4303,"exec":4304,"These":4305,"##codec":4306,"##ugg":4307,"##C00B":4308,"##wards":4309,"algorithm":4310,"FT":4311,"history":4312,"Connection":4313,"Release":4314,"##bb":4315,"appro":4316,"applian":4317,"properties":4318,"packages":4319,"libc":4320,"##aves":4321,"updates":4322,"Kerberos":4323,"SXR1130":4324,"Discovery":4325,"UP":4326,"##WA":4327,"1709":4328,"IPQ":4329,"IOCTL":4330,"generate":4331,"420":4332,"LO":4333,"ld":4334,"lower":4335,"past":4336,"##entation":4337,"##pped":4338,"flow":4339,"enumer":4340,"Forgery":4341,"underflow":4342,"generated":4343,"mov":4344,"os":4345,"##Get":4346,"##idden":4347,"##ockit":4348,"##ency":4349,"RBK":4350,"JRockit":4351,"claims":4352,"Time":4353,"##aro":4354,"##Work":4355,"##Res":4356,"##tible":4357,"authenticate":4358,"short":4359,"correctly":4360,"Help":4361,"exit":4362,"views":4363,"unsafe":4364,"description":4365,"Dia":4366,"##dr":4367,"##System":4368,"##tations":4369,"##ither":4370,"##155":4371,"MITM":4372,"RP":4373,"SCA":4374,"Users":4375,"overl":4376,"##udo":4377,"absolute":4378,"share":4379,"##lobal":4380,"offset":4381,"LI":4382,"RD":4383,"WE":4384,"##97":4385,"Extension":4386,"##resence":4387,"RH":4388,"rights":4389,"##NM":4390,"##heet":4391,"Exper":4392,"SM7":4393,"##cept":4394,"generates":4395,"Perl":4396,"layer":4397,"##bum":4398,"##LP":4399,"##ecycle":4400,"##ysis":4401,"Asterisk":4402,"auto":4403,"Fabric":4404,"Om":4405,"SW":4406,"##Board":4407,"##ceed":4408,"Webex":4409,"##verse":4410,"position":4411,"GPU":4412,"Catalina":4413,"##iolation":4414,"74":4415,"DT":4416,"named":4417,"pc":4418,"##RT":4419,"OpenStack":4420,"finger":4421,"##BMS":4422,"metadata":4423,"IMAP":4424,"Mojave":4425,"Language":4426,"##ds":4427,"##aul":4428,"##gr":4429,"expected":4430,"apply":4431,"##aries":4432,"comb":4433,"destin":4434,"poll":4435,"sort":4436,"documents":4437,"Arch":4438,"Blink":4439,"6u":4440,"CC":4441,"QC":4442,"png":4443,"writing":4444,"providing":4445,"1X49":4446,"ManageEngine":4447,"iPadOS":4448,"book":4449,"##bility":4450,"##ION":4451,"##ront":4452,"Cart":4453,"Soft":4454,"cluster":4455,"fac":4456,"produc":4457,"craft":4458,"inser":4459,"classes":4460,"##ceptible":4461,"typically":4462,"Operations":4463,"Attackers":4464,"achieve":4465,"Call":4466,"##mate":4467,"##AG":4468,"ensure":4469,"see":4470,"##light":4471,"since":4472,"##Page":4473,"##bar":4474,"##ridge":4475,"##ans":4476,"##unter":4477,"102":4478,"##right":4479,"##priate":4480,"Fixed":4481,"susceptible":4482,"670":4483,"##One":4484,"##Key":4485,"##sible":4486,"##ves":4487,"imperson":4488,"##stream":4489,"Conver":4490,"Commerce":4491,"model":4492,"##Control":4493,"Scripts":4494,"Modicon":4495,"PowerPoint":4496,"SDX24":4497,"ww":4498,"##oT":4499,"##fire":4500,"Black":4501,"IPv4":4502,"Maxim":4503,"graph":4504,"pm":4505,"##eno":4506,"adv":4507,"registry":4508,"persistent":4509,"loaded":4510,"flood":4511,"Tomcat":4512,"date":4513,"sti":4514,"##Par":4515,"##icode":4516,"##alk":4517,"##vered":4518,"simple":4519,"SM7150":4520,"Av":4521,"##IL":4522,"##MX":4523,"look":4524,"##shop":4525,"##ube":4526,"Solution":4527,"Phone":4528,"displayed":4529,"secret":4530,"R7":4531,"##press":4532,"##onic":4533,"repository":4534,"sets":4535,"downloads":4536,"##Request":4537,"previously":4538,"##Back":4539,"##zip":4540,"##count":4541,"disp":4542,"##ios":4543,"transmit":4544,"extract":4545,"utils":4546,"DO":4547,"DOM":4548,"##ND":4549,"##inder":4550,"##umb":4551,"##udit":4552,"##API":4553,"opening":4554,"decomp":4555,"Outbound":4556,"several":4557,"split":4558,"Validation":4559,"ZIP":4560,"stop":4561,"##path":4562,"##si":4563,"##TF":4564,"##tech":4565,"##uln":4566,"##emens":4567,"WebAccess":4568,"3010":4569,"Siemens":4570,"specifying":4571,"77":4572,"Go":4573,"por":4574,"##dp":4575,"##hone":4576,"##08":4577,"filters":4578,"keyword":4579,"More":4580,"word":4581,"##OL":4582,"##hip":4583,"##2000":4584,"##lite":4585,"connecting":4586,"Prime":4587,"SM6150":4588,"WinCC":4589,"controllers":4590,"utility":4591,"RCE":4592,"Lifecycle":4593,"IKE":4594,"Sil":4595,"Ub":4596,"##rb":4597,"##cms":4598,"##Qu":4599,"forms":4600,"##lished":4601,"Resource":4602,"sanitization":4603,"records":4604,"##ABLE":4605,"Mer":4606,"iMC":4607,"syn":4608,"##card":4609,"##News":4610,"##icense":4611,"##LEASE":4612,"conversion":4613,"Nuke":4614,"S4":4615,"WAN":4616,"zone":4617,"##rv":4618,"##mino":4619,"next":4620,"requested":4621,"hijacking":4622,"81":4623,"Jas":4624,"##by":4625,"##mous":4626,"##VE":4627,"##ience":4628,"proc":4629,"##Connect":4630,"Central":4631,"APQ8096":4632,"corrupt":4633,"Deployment":4634,"automatic":4635,"RBS":4636,"TS":4637,"cs":4638,"pic":4639,"uti":4640,"##Auth":4641,"references":4642,"php3":4643,"800":4644,"Clear":4645,"slash":4646,"##mod":4647,"##abel":4648,"sche":4649,"failed":4650,"normal":4651,"Med":4652,"frames":4653,"rad":4654,"suite":4655,"##PHP":4656,"##faces":4657,"##850":4658,"##3000":4659,"##Fil":4660,"##ulator":4661,"variants":4662,"Domain":4663,"Meta":4664,"##ipe":4665,"##v6":4666,"##alue":4667,"##ervisor":4668,"chat":4669,"3045":4670,"Prima":4671,"writable":4672,"Recording":4673,"Feature":4674,"IIS":4675,"S2":4676,"##ested":4677,"char":4678,"##uppet":4679,"htm":4680,"MediaWiki":4681,"Vuln":4682,"##ttp":4683,"##AL":4684,"##Hand":4685,"usb":4686,"usage":4687,"##vera":4688,"del":4689,"##ressed":4690,"prin":4691,"redir":4692,"1R3":4693,"Layer":4694,"##EX":4695,"##wise":4696,"##fe":4697,"##zu":4698,"##mpl":4699,"enter":4700,"permit":4701,"##pdf":4702,"Display":4703,"##IND":4704,"preview":4705,"libavcodec":4706,"MAC":4707,"authorized":4708,"either":4709,"less":4710,"rb":4711,"wra":4712,"escap":4713,"Integrated":4714,"Oc":4715,"##VPN":4716,"##itimate":4717,"resear":4718,"possibility":4719,"SDM845":4720,"##Controller":4721,"sources":4722,"E050":4723,"researcher":4724,"EN":4725,"ssh":4726,"##Ar":4727,"##enger":4728,"##ader":4729,"Domino":4730,"numbers":4731,"select":4732,"Optim":4733,"Mini":4734,"2X75":4735,"##pg":4736,"##pack":4737,"##scape":4738,"##irm":4739,"paths":4740,"304":4741,"compromising":4742,"deserialization":4743,"##Form":4744,"##zer":4745,"##arm":4746,"##ings":4747,"assigned":4748,"Maximo":4749,"Zone":4750,"linux":4751,"##para":4752,"##120":4753,"##itig":4754,"710":4755,"New":4756,"##v1":4757,"##LUS":4758,"deli":4759,"##itec":4760,"resultant":4761,"expose":4762,"Primavera":4763,"810":4764,"Hub":4765,"sql":4766,"##cing":4767,"##sequent":4768,"RELEASE":4769,"##folio":4770,"V500R001C30":4771,"freed":4772,"decoder":4773,"legitimate":4774,"ocx":4775,"Electronics":4776,"##enovo":4777,"500":4778,"Le":4779,"NG":4780,"drop":4781,"sv":4782,"v4":4783,"##RC":4784,"##ush":4785,"Input":4786,"Rev":4787,"696":4788,"95":4789,"DN":4790,"Mal":4791,"Su":4792,"Wear":4793,"ports":4794,"##DC":4795,"##VR":4796,"reach":4797,"filtering":4798,"super":4799,"RBR":4800,"##atibility":4801,"deployments":4802,"compromised":4803,"sufficiently":4804,"still":4805,"Hand":4806,"Lenovo":4807,"Syn":4808,"##ilities":4809,"groups":4810,"87":4811,"hig":4812,"Appliances":4813,"self":4814,"Some":4815,"##rib":4816,"commented":4817,"reports":4818,"whose":4819,"Editor":4820,"establish":4821,"Ed":4822,"##rf":4823,"##450":4824,"##url":4825,"##tify":4826,"Small":4827,"Create":4828,"Customer":4829,"ESXi":4830,"71":4831,"C00":4832,"Ful":4833,"ME":4834,"NFS":4835,"pk":4836,"##fill":4837,"##vider":4838,"##acy":4839,"white":4840,"phones":4841,"##cope":4842,"##formance":4843,"001":4844,"##config":4845,"Links":4846,"serialized":4847,"Generation":4848,"Special":4849,"Stream":4850,"WAS":4851,"##NAP":4852,"##alt":4853,"##ember":4854,"##olor":4855,"Program":4856,"IMG":4857,"Global":4858,"PK":4859,"##Bulletin":4860,"##Edit":4861,"##600":4862,"##mplate":4863,"uploads":4864,"Insecure":4865,"Prem":4866,"##ef":4867,"##mt":4868,"##AA":4869,"##EE":4870,"##9000":4871,"##Th":4872,"##XML":4873,"##anger":4874,"##points":4875,"subsequent":4876,"SDM636":4877,"Private":4878,"##bozu":4879,"Spect":4880,"V200R006C":4881,"times":4882,"buil":4883,"Cybozu":4884,"ICMP":4885,"73":4886,"USER":4887,"corr":4888,"tech":4889,"##opping":4890,"##uf":4891,"##utation":4892,"##LR":4893,"##MM":4894,"##erm":4895,"##ora":4896,"instruc":4897,"operator":4898,"rendering":4899,"##files":4900,"3X":4901,"gd":4902,"##ired":4903,"Refer":4904,"SDM710":4905,"Job":4906,"Master":4907,"##B0":4908,"##sd":4909,"##tainer":4910,"parent":4911,"general":4912,"SOAP":4913,"88":4914,"##nical":4915,"##Fusion":4916,"##iter":4917,"Hyperion":4918,"Camera":4919,"ftp":4920,"##Presence":4921,"##BA":4922,"##gy":4923,"##iver":4924,"##TER":4925,"patched":4926,"##pring":4927,"reply":4928,"black":4929,"ssl":4930,"tree":4931,"you":4932,"##ove":4933,"##raw":4934,"##cripts":4935,"##uplic":4936,"separa":4937,"capture":4938,"##cedure":4939,"mysql":4940,"last":4941,"ping":4942,"##orting":4943,"20070":4944,"assign":4945,"registration":4946,"SIPLUS":4947,"##space":4948,"##URL":4949,"CE":4950,"note":4951,"queue":4952,"bugs":4953,"##hedul":4954,"hosts":4955,"statements":4956,"AF":4957,"HD":4958,"JDK":4959,"Ren":4960,"SG":4961,"UCS":4962,"made":4963,"pur":4964,"##tener":4965,"Arbitrary":4966,"##R2130":4967,"hardware":4968,"listing":4969,"SXR2130":4970,"written":4971,"Fulfill":4972,"Fulfillment":4973,"91":4974,"IoT":4975,"initi":4976,"##lassian":4977,"Sel":4978,"accesses":4979,"place":4980,"CSCve":4981,"scen":4982,"itself":4983,"listen":4984,"termination":4985,"AL00":4986,"8217":4987,"Routers":4988,"3000":4989,"cms":4990,"down":4991,"##ha":4992,"##ulse":4993,"##ebian":4994,"##aker":4995,"substring":4996,"callback":4997,"spoofed":4998,"domains":4999,"terminal":5000,"iPhone":5001,"fingerprint":5002,"Director":5003,"F5":5004,"dig":5005,"##do":5006,"##rum":5007,"##OME":5008,"##Lo":5009,"##enames":5010,"##eter":5011,"anal":5012,"Threat":5013,"##ols":5014,"resolv":5015,"environ":5016,"AntiV":5017,"Certificate":5018,"3X48":5019,"97":5020,"PS":5021,"##Dec":5022,"##pa":5023,"302":5024,"Respon":5025,"Components":5026,"##Book":5027,"##cpy":5028,"##215":5029,"##400":5030,"##ana":5031,"##ety":5032,"anony":5033,"partic":5034,"viewed":5035,"Double":5036,"##timate":5037,"Performance":5038,"overlap":5039,"TR":5040,"##DNS":5041,"##par":5042,"##TT":5043,"##MA":5044,"covered":5045,"discon":5046,"pattern":5047,"ques":5048,"Shockw":5049,"Atlassian":5050,"##Servlet":5051,"wrong":5052,"Shockwave":5053,"9000":5054,"PP":5055,"hidden":5056,"##ged":5057,"Mov":5058,"TelePresence":5059,"CD":5060,"Cold":5061,"Font":5062,"cipher":5063,"having":5064,"helper":5065,"##lle":5066,"##overy":5067,"##Pass":5068,"relies":5069,"chain":5070,"Integration":5071,"Spot":5072,"Ubuntu":5073,"scenari":5074,"CAP":5075,"II":5076,"R75":5077,"S5":5078,"nodes":5079,"##ze":5080,"##liable":5081,"WebCenter":5082,"##tenance":5083,"generation":5084,"##ategor":5085,"SDA845":5086,"replace":5087,"DR":5088,"Fast":5089,"NAS":5090,"hw":5091,"iS":5092,"ticket":5093,"##vm":5094,"##emb":5095,"OpenJ":5096,"inputs":5097,"##RAME":5098,"blank":5099,"Puppet":5100,"R7800":5101,"gre":5102,"##td":5103,"##abilities":5104,"##ats":5105,"interfaces":5106,"IPC":5107,"writes":5108,"##ouse":5109,"##resh":5110,"##ranch":5111,"attachments":5112,"##Store":5113,"enumerate":5114,"Silver":5115,"Grid":5116,"Off":5117,"gem":5118,"##tition":5119,"##ention":5120,"##antom":5121,"##undle":5122,"passwd":5123,"variant":5124,"www":5125,"RA":5126,"Spl":5127,"TV":5128,"telnet":5129,"##pdump":5130,"successfully":5131,"img":5132,"##Comp":5133,"Meeting":5134,"BEA":5135,"BIND":5136,"Cap":5137,"Rel":5138,"Ster":5139,"##CI":5140,"##iny":5141,"until":5142,"promp":5143,"validated":5144,"##ocus":5145,"Transfer":5146,"Spectrum":5147,"built":5148,"2R2":5149,"94":5150,"Gen":5151,"each":5152,"##Doc":5153,"##cement":5154,"##NET":5155,"##ather":5156,"MyBB":5157,"APQ8053":5158,"600":5159,"JD":5160,"Nic":5161,"Person":5162,"eff":5163,"style":5164,"vm":5165,"##OT":5166,"##mph":5167,"##izard":5168,"performs":5169,"URIs":5170,"color":5171,"Error":5172,"FW":5173,"Flex":5174,"Nort":5175,"S6":5176,"mm":5177,"mdb":5178,"rs":5179,"##An":5180,"##GS":5181,"##ests":5182,"##cale":5183,"##ango":5184,"recover":5185,"browsing":5186,"SDM670":5187,"##ocket":5188,"originally":5189,"##coming":5190,"QCS405":5191,"clean":5192,"##ield":5193,"replay":5194,"filenames":5195,"##ambo":5196,"elevate":5197,"normally":5198,"Clam":5199,"destination":5200,"96":5201,"mitig":5202,"##Office":5203,"activ":5204,"otherwise":5205,"malware":5206,"009":5207,"Phantom":5208,"##neider":5209,"Schneider":5210,"AntiVirus":5211,"COM":5212,"Es":5213,"sam":5214,"##String":5215,"##tot":5216,"##dev":5217,"##urn":5218,"enables":5219,"##ensor":5220,"Chain":5221,"browsers":5222,"decryp":5223,"json":5224,"capabilities":5225,"timing":5226,"signedness":5227,"cfg":5228,"WNDR4300":5229,"WEB":5230,"ColdFusion":5231,"PE":5232,"R3":5233,"WR":5234,"nested":5235,"war":5236,"##dir":5237,"##aa":5238,"Contact":5239,"Unix":5240,"player":5241,"exported":5242,"##8250":5243,"EXE":5244,"Load":5245,"InfoSphere":5246,"089":5247,"Debian":5248,"power":5249,"##Per":5250,"##go":5251,"##itu":5252,"##obar":5253,"configure":5254,"##okie":5255,"Broad":5256,"restore":5257,"tcpdump":5258,"Referer":5259,"617":5260,"GIF":5261,"Pulse":5262,"##DU":5263,"##group":5264,"conc":5265,"Unicode":5266,"##tails":5267,"##ATA":5268,"5500":5269,"smartph":5270,"SDX55":5271,"suffers":5272,"Sterling":5273,"Mis":5274,"##nu":5275,"##itation":5276,"development":5277,"111":5278,"##olders":5279,"##ierra":5280,"recursion":5281,"navigation":5282,"Action":5283,"Be":5284,"Del":5285,"ET":5286,"Mox":5287,"Sierra":5288,"##eaver":5289,"##aq":5290,"##tml":5291,"##gs":5292,"##CL":5293,"##active":5294,"##ubuntu":5295,"confirm":5296,"stats":5297,"returned":5298,"QCA65":5299,"anonymous":5300,"##mphony":5301,"PhantomPDF":5302,"List":5303,"Str":5304,"##utin":5305,"##FA":5306,"##iling":5307,"##alth":5308,"alpha":5309,"##ison":5310,"##shot":5311,"manipulate":5312,"implementations":5313,"SH":5314,"Test":5315,"##ai":5316,"excess":5317,"##cribe":5318,"11Android":5319,"##urse":5320,"##umes":5321,"##107":5322,"runs":5323,"Connector":5324,"visiting":5325,"initialization":5326,"discloses":5327,"peer":5328,"APQ8096AU":5329,"C00E":5330,"##totype":5331,"FS":5332,"PT":5333,"S1":5334,"let":5335,"pid":5336,"swit":5337,"##oin":5338,"##nP":5339,"##MF":5340,"##pres":5341,"Filter":5342,"Integrator":5343,"appliance":5344,"movie":5345,"435":5346,"632":5347,"Block":5348,"HMI":5349,"MR":5350,"SY":5351,"##Cart":5352,"##unnel":5353,"##oles":5354,"WebS":5355,"shut":5356,"Chat":5357,"427":5358,"blocks":5359,"popup":5360,"Portfolio":5361,"AW":5362,"EAP":5363,"JSP":5364,"fetch":5365,"##Value":5366,"touch":5367,"libv":5368,"IPS":5369,"Subs":5370,"topic":5371,"statement":5372,"Cluster":5373,"##media":5374,"##BT":5375,"##BR":5376,"##8000":5377,"intro":5378,"20069":5379,"signatures":5380,"Compatibility":5381,"SM8250":5382,"V100R002":5383,"##rc1":5384,"Switch":5385,"win32k":5386,"Moxa":5387,"4R2":5388,"AUT":5389,"IMC":5390,"situ":5391,"Supply":5392,"design":5393,"Messaging":5394,"##Shop":5395,"##Command":5396,"Corpor":5397,"Nicobar":5398,"RS":5399,"UTF":5400,"dest":5401,"raw":5402,"vol":5403,"##uk":5404,"##On":5405,"##fc":5406,"affecting":5407,"leaves":5408,"div":5409,"Encryp":5410,"endpoints":5411,"Postgre":5412,"Signature":5413,"Car":5414,"Dist":5415,"Function":5416,"Mambo":5417,"Under":5418,"sound":5419,"##oted":5420,"##manager":5421,"int":5422,"##00C":5423,"applies":5424,"3050":5425,"V100R00":5426,"Samba":5427,"Wired":5428,"enforcement":5429,"Spotfire":5430,"FD":5431,"SMS":5432,"##part":5433,"incoming":5434,"##enti":5435,"##essage":5436,"issu":5437,"restriction":5438,"opens":5439,"specifically":5440,"Php":5441,"NetWeaver":5442,"PostgreSQL":5443,"EE":5444,"mapping":5445,"##ways":5446,"##js":5447,"reliable":5448,"usr":5449,"phpBB":5450,"##licit":5451,"plan":5452,"handsh":5453,"consume":5454,"connected":5455,"APQ800":5456,"##oho":5457,"APQ8009":5458,"Crypto":5459,"PA":5460,"most":5461,"##rd":5462,"##Portal":5463,"##abling":5464,"##aser":5465,"reads":5466,"Proper":5467,"bypassed":5468,"contained":5469,"##ocial":5470,"##tinet":5471,"ActiveM":5472,"levels":5473,"CSCvf":5474,"repeated":5475,"##Dev":5476,"automatically":5477,"DS":5478,"GT":5479,"Light":5480,"Mon":5481,"Main":5482,"OO":5483,"R9000":5484,"equ":5485,"virus":5486,"##By":5487,"##tre":5488,"##missions":5489,"Disk":5490,"Notes":5491,"base64":5492,"V500R001C00SPC":5493,"712":5494,"dashboard":5495,"duplic":5496,"##Blog":5497,"##ci":5498,"##Rec":5499,"##heets":5500,"##roll":5501,"alter":5502,"20040":5503,"##login":5504,"1X46":5505,"APQ8098":5506,"broad":5507,"##urvey":5508,"##angerous":5509,"2R3":5510,"fin":5511,"##P1":5512,"##tex":5513,"Reference":5514,"recv":5515,"Solutions":5516,"backs":5517,"trunc":5518,"##2200":5519,"Advan":5520,"ASR":5521,"SDM632":5522,"RDBMS":5523,"switches":5524,"M4300":5525,"Rad":5526,"V15":5527,"family":5528,"git":5529,"##Or":5530,"##mf":5531,"authenticating":5532,"sock":5533,"##upport":5534,"##osts":5535,"downloaded":5536,"MDM9150":5537,"structures":5538,"renderer":5539,"Filters":5540,"V200R007C02":5541,"##HTML":5542,"editing":5543,"utiliz":5544,"Card":5545,"RSS":5546,"##ict":5547,"##any":5548,"##ects":5549,"routing":5550,"V200R005":5551,"Machine":5552,"802":5553,"macro":5554,"publication":5555,"ASLR":5556,"customer":5557,"introduc":5558,"AUTH":5559,"3R3":5560,"Cache":5561,"DP":5562,"Fed":5563,"md":5564,"rate":5565,"tables":5566,"##dd":5567,"##mbo":5568,"##BC":5569,"##Gate":5570,"##espon":5571,"too":5572,"180":5573,"defined":5574,"performed":5575,"browse":5576,"NetS":5577,"IOC":5578,"Interaction":5579,"##Field":5580,"V200R007C01":5581,"Descriptor":5582,"backslash":5583,"Az":5584,"EV":5585,"FR":5586,"POP":5587,"Station":5588,"VB":5589,"Zoho":5590,"factory":5591,"ign":5592,"##FE":5593,"##tims":5594,"##atel":5595,"1180":5596,"##trl":5597,"route":5598,"808":5599,"protections":5600,"Installer":5601,"##Works":5602,"particular":5603,"Norton":5604,"Lim":5605,"MA":5606,"QFX":5607,"##PWE":5608,"##ifier":5609,"computation":5610,"httpd":5611,"##msg":5612,"Design":5613,"SAML":5614,"sanitized":5615,"Messenger":5616,"Authorization":5617,"matches":5618,"impersonate":5619,"Personal":5620,"Bar":5621,"DCS":5622,"Spring":5623,"krb":5624,"tri":5625,"Fortinet":5626,"installing":5627,"Technical":5628,"##8180":5629,"Zy":5630,"uid":5631,"##nection":5632,"##izon":5633,"##tober":5634,"CSV":5635,"libp":5636,"MDM9655":5637,"victims":5638,"highly":5639,"##ports":5640,"Processor":5641,"Field":5642,"IRC":5643,"Print":5644,"lookup":5645,"excessive":5646,"Encryption":5647,"Distrib":5648,"ELF":5649,"cid":5650,"dynamic":5651,"old":5652,"##lers":5653,"##Site":5654,"##gress":5655,"##Hub":5656,"protect":5657,"across":5658,"actor":5659,"obtaining":5660,"SPL":5661,"interpre":5662,"Explo":5663,"ChakraCore":5664,"widget":5665,"Converter":5666,"636":5667,"GS":5668,"Shell":5669,"##IE":5670,"##tf":5671,"##where":5672,"##TL":5673,"##UG":5674,"doesn":5675,"Developer":5676,"descri":5677,"Index":5678,"Builder":5679,"##filter":5680,"tracking":5681,"Absolute":5682,"splitting":5683,"##Query":5684,"##Handler":5685,"5000":5686,"89":5687,"QM":5688,"Send":5689,"Tec":5690,"trace":5691,"##Action":5692,"##USE":5693,"begin":5694,"area":5695,"incre":5696,"child":5697,"models":5698,"MSM8953":5699,"##221":5700,"##tistics":5701,"Agile":5702,"combin":5703,"855":5704,"Cra":5705,"Dynamic":5706,"Graph":5707,"vir":5708,"##bind":5709,"##CK":5710,"##Cal":5711,"##ving":5712,"##reak":5713,"Inno":5714,"110":5715,"community":5716,"compressed":5717,"##101":5718,"routin":5719,"Arc":5720,"unsigned":5721,"SC8180":5722,"question":5723,"SC8180X":5724,"7000":5725,"EP":5726,"Sur":5727,"##cu":5728,"##160":5729,"##root":5730,"rely":5731,"revision":5732,"##rel":5733,"##api":5734,"##eous":5735,"##35M":5736,"Array":5737,"Safe":5738,"MDM9635M":5739,"depending":5740,"restar":5741,"segment":5742,"Cas":5743,"Factory":5744,"Save":5745,"bus":5746,"eng":5747,"label":5748,"##Ins":5749,"##pers":5750,"##ga":5751,"##Ware":5752,"##fort":5753,"##lities":5754,"pam":5755,"loss":5756,"versionName":5757,"passes":5758,"plug":5759,"shi":5760,"##ourn":5761,"MSM8917":5762,"trust":5763,"encode":5764,"1R2":5765,"Jira":5766,"car":5767,"##VER":5768,"##ored":5769,"versionCode":5770,"##nell":5771,"printer":5772,"Communication":5773,"##ENT":5774,"Binutils":5775,"Squid":5776,"GRA":5777,"ps":5778,"##ky":5779,"##2B":5780,"##Upload":5781,"##ently":5782,"##ifi":5783,"logout":5784,"checked":5785,"##omme":5786,"quote":5787,"Development":5788,"given":5789,"width":5790,"439":5791,"AWS":5792,"R69":5793,"dc":5794,"mer":5795,"opp":5796,"##ris":5797,"##At":5798,"##cf":5799,"##FD":5800,"##Flow":5801,"##erate":5802,"Report":5803,"Cookie":5804,"very":5805,"20081":5806,"Blue":5807,"receive":5808,"Transport":5809,"codec":5810,"close":5811,"0x000000000000":5812,"GA":5813,"Jan":5814,"With":5815,"flash":5816,"##oti":5817,"##sec":5818,"##UN":5819,"##umber":5820,"Apps":5821,"##aved":5822,"fixation":5823,"SDM450":5824,"##jacking":5825,"##131":5826,"identity":5827,"Insight":5828,"##Logix":5829,"capt":5830,"First":5831,"October":5832,"375":5833,"Gal":5834,"Length":5835,"Lock":5836,"S9":5837,"Social":5838,"Xn":5839,"dro":5840,"##atalog":5841,"internet":5842,"##rontend":5843,"##COM":5844,"initialized":5845,"IFRAME":5846,"deployment":5847,"recursive":5848,"CONF":5849,"Hotfix":5850,"Edwards":5851,"##mbolic":5852,"Line":5853,"MT":5854,"Poll":5855,"Style":5856,"Sonic":5857,"sudo":5858,"violation":5859,"procedure":5860,"entering":5861,"169":5862,"##172":5863,"openS":5864,"notification":5865,"Computing":5866,"Shop":5867,"MSM8998":5868,"CSCvc":5869,"##encing":5870,"Org":5871,"greater":5872,"handshake":5873,"478":5874,"Bec":5875,"PV":5876,"Sn":5877,"WLAN":5878,"cron":5879,"Unit":5880,"##html":5881,"prevents":5882,"3D":5883,"AJ":5884,"Boot":5885,"Cru":5886,"Knowledge":5887,"WRF":5888,"##KB":5889,"##nt":5890,"##From":5891,"##UE":5892,"##unting":5893,"##aps":5894,"##ails":5895,"##ORS":5896,"##ospace":5897,"changed":5898,"Meetings":5899,"##aulting":5900,"blacklist":5901,"separate":5902,"Can":5903,"Click":5904,"Hos":5905,"den":5906,"##iw":5907,"##iod":5908,"album":5909,"cras":5910,"##store":5911,"resol":5912,"SER":5913,"Artif":5914,"mishandling":5915,"##3700":5916,"owners":5917,"QCA9":5918,"E0506":5919,"Rennell":5920,"Advantech":5921,"XnView":5922,"GE":5923,"NS":5924,"Pres":5925,"PNG":5926,"Rust":5927,"mon":5928,"##ring":5929,"##istic":5930,"##atrix":5931,"acti":5932,"injected":5933,"##atar":5934,"120":5935,"trailing":5936,"specifies":5937,"Pointer":5938,"20039":5939,"provider":5940,"Quality":5941,"V500R001C50":5942,"Automobile":5943,"copying":5944,"Secospace":5945,"##termost":5946,"##Networks":5947,"3R":5948,"Fl":5949,"pad":5950,"##900":5951,"##v5":5952,"extended":5953,"##ref":5954,"##lyst":5955,"param":5956,"##search":5957,"interrup":5958,"##tifications":5959,"Change":5960,"##though":5961,"Bugzilla":5962,"Technolog":5963,"namespace":5964,"WiFi":5965,"Defense":5966,"Mattermost":5967,"BSOD":5968,"Property":5969,"Faulting":5970,"KDE":5971,"Mi":5972,"board":5973,"dangerous":5974,"##mer":5975,"##LD":5976,"##anView":5977,"contrib":5978,"20035":5979,"##obility":5980,"Rep":5981,"##trolled":5982,"opened":5983,"button":5984,"##ypervisor":5985,"##Add":5986,"PLC":5987,"Settings":5988,"Trust":5989,"Catalyst":5990,"BIOS":5991,"##gnostics":5992,"Experience":5993,"Premium":5994,"correspon":5995,"Cruise":5996,"Irf":5997,"TC":5998,"V7":5999,"dns":6000,"glib":6001,"mk":6002,"rss":6003,"##ye":6004,"##Do":6005,"##Directory":6006,"hashes":6007,"Forward":6008,"SET":6009,"leakage":6010,"Libre":6011,"##appro":6012,"lists":6013,"themes":6014,"accepts":6015,"cfm":6016,"Guestbook":6017,"Optimizer":6018,"smartphones":6019,"Corporate":6020,"AK":6021,"Hon":6022,"Spoof":6023,"icon":6024,"rule":6025,"v7":6026,"##eph":6027,"##Password":6028,"##mon":6029,"##check":6030,"##UP":6031,"##Un":6032,"anti":6033,"poison":6034,"##chron":6035,"places":6036,"soc":6037,"chips":6038,"##eeting":6039,"Template":6040,"extra":6041,"##Process":6042,"RealNetworks":6043,"Overall":6044,"Mantis":6045,"reveal":6046,"scanning":6047,"accept":6048,"evalu":6049,"krb5":6050,"IrfanView":6051,"CID":6052,"Mall":6053,"##ology":6054,"##Search":6055,"##BX":6056,"##jango":6057,"cop":6058,"##licies":6059,"Profile":6060,"handlers":6061,"requesting":6062,"recomme":6063,"supplying":6064,"Sites":6065,"Parsing":6066,"colum":6067,"Horde":6068,"##155P":6069,"QM215":6070,"Side":6071,"Tor":6072,"TFTP":6073,"sample":6074,"##GA":6075,"##Group":6076,"##aced":6077,"##izes":6078,"Com":6079,"##00R0":6080,"170":6081,"msm":6082,"##Chat":6083,"entire":6084,"Ultra":6085,"ClamAV":6086,"divide":6087,"NA":6088,"cart":6089,"gif":6090,"sell":6091,"##JS":6092,"##onom":6093,"##rameter":6094,"Una":6095,"runtime":6096,"recovery":6097,"##ITY":6098,"maintain":6099,"Prev":6100,"Orche":6101,"exposes":6102,"IPQ80":6103,"FL":6104,"Sw":6105,"##Media":6106,"##arf":6107,"points":6108,"Webmail":6109,"##place":6110,"STABLE":6111,"Foundry":6112,"##ameras":6113,"R6700":6114,"##CRM":6115,"ldap":6116,"SCADA":6117,"##Filter":6118,"CI":6119,"DM":6120,"TO":6121,"Task":6122,"cloud":6123,"hy":6124,"happ":6125,"##lan":6126,"##ror":6127,"##pi":6128,"##core":6129,"##ctl":6130,"##Read":6131,"ini":6132,"Account":6133,"##uests":6134,"requirements":6135,"instances":6136,"Monitoring":6137,"elf":6138,"described":6139,"##appropriate":6140,"BMP":6141,"OTR":6142,"UL":6143,"dh":6144,"folders":6145,"##dm":6146,"##des":6147,"##IQ":6148,"##zz":6149,"##ulation":6150,"##ley":6151,"though":6152,"##adow":6153,"115":6154,"decla":6155,"syslog":6156,"swf":6157,"scheme":6158,"Spoofing":6159,"365":6160,"AB":6161,"Ev":6162,"hot":6163,"pipe":6164,"##ITE":6165,"##510":6166,"##Man":6167,"##erend":6168,"##303":6169,"returns":6170,"snv":6171,"MP3":6172,"Ethereal":6173,"construct":6174,"##ategories":6175,"Mate":6176,"Para":6177,"audit":6178,"game":6179,"snap":6180,"##bus":6181,"##ino":6182,"##ias":6183,"##eby":6184,"##oder":6185,"applet":6186,"##peed":6187,"##ooter":6188,"##cloud":6189,"Forms":6190,"APM":6191,"##ipity":6192,"NetBSD":6193,"##controlled":6194,"Modules":6195,"locked":6196,"Analyzer":6197,"Movable":6198,"duplicate":6199,"IOCtl":6200,"##erendipity":6201,"OX":6202,"Zen":6203,"mos":6204,"v0":6205,"##Dis":6206,"disrup":6207,"Extended":6208,"Repository":6209,"Computer":6210,"desk":6211,"##ifieds":6212,"##eeper":6213,"State":6214,"transmission":6215,"transaction":6216,"##ACE":6217,"encrypt":6218,"##tranet":6219,"Documentum":6220,"Based":6221,"FA":6222,"R62":6223,"Util":6224,"v8":6225,"##trace":6226,"##FI":6227,"##WD":6228,"##Lib":6229,"##XT":6230,"##adar":6231,"chrome":6232,"libb":6233,"features":6234,"snmp":6235,"python":6236,"Super":6237,"reachable":6238,"resolved":6239,"2R":6240,"LM":6241,"MO":6242,"NAT":6243,"bad":6244,"gateway":6245,"v9":6246,"##Pr":6247,"##Ele":6248,"##wan":6249,"##320":6250,"##raliz":6251,"repres":6252,"atom":6253,"computer":6254,"Provision":6255,"Only":6256,"explicit":6257,"##tacts":6258,"manipulation":6259,"decoding":6260,"implemented":6261,"MD5":6262,"0a":6263,"020":6264,"ADM":6265,"IE":6266,"LG":6267,"Location":6268,"##run":6269,"##CD":6270,"##UA":6271,"##test":6272,"photo":6273,"confidential":6274,"connectivity":6275,"region":6276,"##tector":6277,"apache":6278,"Default":6279,"Binary":6280,"redirection":6281,"shutdown":6282,"SPLIT":6283,"215":6284,"2R1":6285,"Gnu":6286,"NTP":6287,"##aign":6288,"##bd":6289,"##LA":6290,"##Mod":6291,"##Up":6292,"##call":6293,"observ":6294,"Provider":6295,"added":6296,"assets":6297,"prone":6298,"validates":6299,"##ING":6300,"published":6301,"move":6302,"cached":6303,"receiving":6304,"##tables":6305,"##ampaign":6306,"QRadar":6307,"indic":6308,"higher":6309,"Technologies":6310,"glibc":6311,"3R2":6312,"DSL":6313,"NPort":6314,"P6":6315,"WH":6316,"max":6317,"saved":6318,"##b2":6319,"##sg":6320,"##AML":6321,"##Frame":6322,"interpr":6323,"##ICE":6324,"archiv":6325,"ASUS":6326,"V300R001C":6327,"##Parser":6328,"Casc":6329,"Provisioning":6330,"864":6331,"Critical":6332,"Me":6333,"bmp":6334,"jpeg":6335,"license":6336,"row":6337,"##auth":6338,"##211":6339,"##erry":6340,"##ndal":6341,"##iction":6342,"once":6343,"crafting":6344,"compil":6345,"policies":6346,"128":6347,"intercep":6348,"##509":6349,"bypassing":6350,"Plug":6351,"OpenSS":6352,"##mental":6353,"easily":6354,"true":6355,"Model":6356,"however":6357,"convert":6358,"##Backup":6359,"Azure":6360,"ownership":6361,"OTRS":6362,"Im":6363,"NIP":6364,"QTS":6365,"RFC":6366,"Table":6367,"Up":6368,"##Cre":6369,"##NO":6370,"##uts":6371,"##acti":6372,"libg":6373,"##osed":6374,"comes":6375,"MSM8940":6376,"Traffic":6377,"SA6":6378,"##ORT":6379,"step":6380,"giving":6381,"##Trans":6382,"activities":6383,"broadcast":6384,"312":6385,"D7800":6386,"R1":6387,"know":6388,"maxim":6389,"nfs":6390,"##ov":6391,"##T8":6392,"##TM":6393,"##rar":6394,"##astic":6395,"iso":6396,"##001":6397,"append":6398,"##aming":6399,"docum":6400,"Docker":6401,"MSM8937":6402,"MSM8905":6403,"loader":6404,"identify":6405,"##Space":6406,"allocate":6407,"##8500":6408,"##atid":6409,"V500R001C20SPC200":6410,"Horizon":6411,"##aroon":6412,"wrapper":6413,"crashes":6414,"##ndalone":6415,"Ax":6416,"Garoon":6417,"Http":6418,"graphics":6419,"##PG":6420,"##GL":6421,"##agios":6422,"##lind":6423,"##estor":6424,"199":6425,"Shopping":6426,"posts":6427,"CUPS":6428,"APQ8017":6429,"Missing":6430,"CONFIG":6431,"CX":6432,"Nt":6433,"Por":6434,"saf":6435,"scope":6436,"year":6437,"##tek":6438,"##esting":6439,"altern":6440,"##emu":6441,"Play":6442,"notifications":6443,"Sharing":6444,"##install":6445,"Possib":6446,"symbolic":6447,"##reads":6448,"True":6449,"Photoshop":6450,"1R7":6451,"calculation":6452,"advanced":6453,"Response":6454,"QCA937":6455,"declaration":6456,"CT":6457,"ng":6458,"rpc":6459,"##BL":6460,"##Wise":6461,"##Wall":6462,"##ereby":6463,"##ale":6464,"anno":6465,"127":6466,"Website":6467,"##type":6468,"OpenBSD":6469,"Seg":6470,"ownCloud":6471,"##Forms":6472,"##TIFF":6473,"playlist":6474,"##heduler":6475,"combination":6476,"1a":6477,"BPM":6478,"B2B":6479,"HE":6480,"Jaz":6481,"Map":6482,"Upd":6483,"hook":6484,"##P3":6485,"##wn":6486,"asm":6487,"incons":6488,"bypasses":6489,"##ETA":6490,"misc":6491,"overwriting":6492,"Query":6493,"deleting":6494,"entities":6495,"analysis":6496,"prompt":6497,"096":6498,"Bridge":6499,"DI":6500,"ER":6501,"Hit":6502,"PI":6503,"Ticket":6504,"tif":6505,"##WP":6506,"##Nuke":6507,"##ern":6508,"##abs":6509,"##lease":6510,"##riend":6511,"answ":6512,"MSM8920":6513,"clickjacking":6514,"##Commerce":6515,"##printf":6516,"##Tek":6517,"UPnP":6518,"transmitted":6519,"Ge":6520,"Tri":6521,"Zip":6522,"bb":6523,"##Buffer":6524,"##cs":6525,"##hines":6526,"##ticles":6527,"developer":6528,"##uction":6529,"become":6530,"##iv2":6531,"Elastic":6532,"##DES":6533,"##amples":6534,"manipulated":6535,"Files":6536,"Centre":6537,"inserting":6538,"##ournal":6539,"Because":6540,"err":6541,"guests":6542,"hid":6543,"ren":6544,"##ui":6545,"##mar":6546,"##Base":6547,"##fright":6548,"##310":6549,"##1000":6550,"##432":6551,"##onger":6552,"##inition":6553,"##ultic":6554,"##abber":6555,"##calation":6556,"##olaris":6557,"enough":6558,"passing":6559,"period":6560,"EnterpriseOne":6561,"ACE":6562,"##php":6563,"##crypt":6564,"##DIUS":6565,"ASN":6566,"Total":6567,"rc1":6568,"30148":6569,"LIST":6570,"ActiveMatrix":6571,"maximum":6572,"DG":6573,"Navig":6574,"Zend":6575,"basic":6576,"clip":6577,"jpg":6578,"tiff":6579,"##lu":6580,"##lp":6581,"##Des":6582,"##ECT":6583,"##write":6584,"##tid":6585,"##ales":6586,"##ansion":6587,"##mmary":6588,"locally":6589,"leverages":6590,"signal":6591,"Netscape":6592,"Smar":6593,"##Reports":6594,"bits":6595,"printers":6596,"items":6597,"pointers":6598,"Broker":6599,"##door":6600,"Escalation":6601,"QCA6574":6602,"opport":6603,"desktop":6604,"Utility":6605,"Jazz":6606,"730":6607,"ADS":6608,"M3":6609,"NE":6610,"Rem":6611,"Sa":6612,"ds":6613,"every":6614,"nick":6615,"##air":6616,"##Build":6617,"##cd":6618,"##Run":6619,"##tax":6620,"##etric":6621,"crate":6622,"Protect":6623,"integra":6624,"processor":6625,"boundaries":6626,"OpenView":6627,"quick":6628,"##174":6629,"workstation":6630,"SVN":6631,"tasks":6632,"USG95":6633,"Soph":6634,"Ultimate":6635,"beginning":6636,"Aug":6637,"IG":6638,"Lis":6639,"Sheets":6640,"Telnet":6641,"omit":6642,"##px":6643,"##utraliz":6644,"unavailable":6645,"pathnames":6646,"##1200":6647,"##mented":6648,"016":6649,"429":6650,"therefore":6651,"##eep":6652,"Star":6653,"##Login":6654,"##IPT":6655,"locking":6656,"expressions":6657,"Synology":6658,"R7500v2":6659,"30503":6660,"Artifex":6661,"Cascading":6662,"Emp":6663,"Full":6664,"MB":6665,"OC":6666,"tre":6667,"tunnel":6668,"##Source":6669,"##ming":6670,"##p2":6671,"##pad":6672,"##Event":6673,"##tio":6674,"threat":6675,"constra":6676,"pair":6677,"104":6678,"##igner":6679,"117":6680,"intercept":6681,"installs":6682,"prefix":6683,"viewing":6684,"##antum":6685,"##Connection":6686,"generator":6687,"registered":6688,"##tagefright":6689,"manipulating":6690,"IRIX":6691,"forwarding":6692,"libstagefright":6693,"Description":6694,"LOG":6695,"instruction":6696,"848":6697,"ARF":6698,"Daemon":6699,"Dynam":6700,"KVM":6701,"LS":6702,"P2":6703,"VNC":6704,"frontend":6705,"hypervisor":6706,"longer":6707,"ov":6708,"wor":6709,"##ca":6710,"##ground":6711,"##Cent":6712,"##Class":6713,"reverse":6714,"##ationsh":6715,"acc":6716,"Unity":6717,"Exiv2":6718,"##tyles":6719,"##115":6720,"defe":6721,"drive":6722,"signing":6723,"##sock":6724,"Attach":6725,"##Protect":6726,"bitmap":6727,"Analysis":6728,"unexpectedly":6729,"avatar":6730,"demo":6731,"collection":6732,"libxml":6733,"Omn":6734,"repeatedly":6735,"Sophos":6736,"Apr":6737,"Dashboard":6738,"PAM":6739,"eX":6740,"meeting":6741,"##ken":6742,"##610":6743,"##Free":6744,"##NX":6745,"intranet":6746,"##icing":6747,"##alf":6748,"##nergy":6749,"exceed":6750,"##utor":6751,"1049":6752,"##urrent":6753,"##cho":6754,"150":6755,"##thers":6756,"Screen":6757,"##ogn":6758,"blocked":6759,"Space":6760,"organ":6761,"buffers":6762,"swapping":6763,"Tecal":6764,"260":6765,"Bra":6766,"Feb":6767,"Mobility":6768,"npm":6769,"##tration":6770,"##tar":6771,"adm":6772,"##quate":6773,"##caler":6774,"applied":6775,"##uba":6776,"CSCs":6777,"recon":6778,"supply":6779,"managed":6780,"SDM850":6781,"213":6782,"SRC":6783,"##aching":6784,"Async":6785,"FTD":6786,"openSUSE":6787,"675":6788,"ISA":6789,"Pass":6790,"VP":6791,"try":6792,"tamp":6793,"##uary":6794,"##na":6795,"##3D":6796,"course":6797,"##pection":6798,"cert":6799,"supports":6800,"requirement":6801,"trus":6802,"Package":6803,"convin":6804,"SWF":6805,"positioned":6806,"portions":6807,"1R1":6808,"250":6809,"Cod":6810,"Fac":6811,"Focus":6812,"Lync":6813,"PID":6814,"mb":6815,"put":6816,"##PA":6817,"##nc":6818,"##news":6819,"##cam":6820,"##gen":6821,"##Check":6822,"##image":6823,"##7C":6824,"##erator":6825,"##eman":6826,"##quoted":6827,"relay":6828,"relative":6829,"Managed":6830,"##post":6831,"independ":6832,"regard":6833,"##axy":6834,"Engineering":6835,"NTLM":6836,"##ruary":6837,"mp4":6838,"RHE":6839,"escaping":6840,"SA6155P":6841,"February":6842,"245":6843,"Credential":6844,"Hard":6845,"Is":6846,"PN":6847,"PM":6848,"Title":6849,"ZFS":6850,"catid":6851,"footer":6852,"mig":6853,"##ota":6854,"##uff":6855,"##DL":6856,"##Message":6857,"##head":6858,"##ebook":6859,"##lix":6860,"comparis":6861,"SP6":6862,"168":6863,"##order":6864,"boundary":6865,"##306":6866,"keyboard":6867,"Moderate":6868,"##R1P":6869,"RC2":6870,"codes":6871,"##Forum":6872,"hosting":6873,"##screen":6874,"guessing":6875,"updated":6876,"warning":6877,"VBScript":6878,"January":6879,"Prevention":6880,"D6":6881,"Hel":6882,"Max":6883,"Null":6884,"R60":6885,"Sys":6886,"ls":6887,"term":6888,"ui":6889,"##Bra":6890,"##7000":6891,"##eration":6892,"##alse":6893,"userspace":6894,"Think":6895,"##orrent":6896,"002":6897,"connector":6898,"##171":6899,"mailbox":6900,"PLM":6901,"TEL":6902,"ISC":6903,"likely":6904,"##BulletinBoard":6905,"shipped":6906,"##Element":6907,"Auth":6908,"Bo":6909,"Ber":6910,"Mem":6911,"Ste":6912,"ib":6913,"live":6914,"rename":6915,"trac":6916,"xS":6917,"##cache":6918,"##alloc":6919,"bey":6920,"thumb":6921,"##inds":6922,"Conc":6923,"Container":6924,"Unis":6925,"20080":6926,"existed":6927,"##plays":6928,"statistics":6929,"shadow":6930,"##4500":6931,"guestbook":6932,"Incl":6933,"##ormal":6934,"Setup":6935,"Payments":6936,"scenario":6937,"Delta":6938,"padding":6939,"Possible":6940,"April":6941,"Bundle":6942,"Ec":6943,"PCS":6944,"QCM":6945,"RU":6946,"WLC":6947,"catalog":6948,"native":6949,"##Suite":6950,"review":6951,"##tice":6952,"108":6953,"##uber":6954,"160":6955,"##strator":6956,"##phone":6957,"##SPH":6958,"Username":6959,"viewer":6960,"##ART":6961,"curl":6962,"##achi":6963,"directive":6964,"OpenSolaris":6965,"Collaborative":6966,"corrupted":6967,"##gnostic":6968,"demux":6969,"SDM429W":6970,"techni":6971,"Exploitation":6972,"beyond":6973,"Other":6974,"PX":6975,"Rob":6976,"Tw":6977,"Tel":6978,"Token":6979,"late":6980,"nv":6981,"sd":6982,"tpl":6983,"req":6984,"alert":6985,"##add":6986,"unlock":6987,"##ibox":6988,"left":6989,"above":6990,"##6300":6991,"Instant":6992,"LibTIFF":6993,"WNR":6994,"##taccess":6995,"SCR":6996,"debugging":6997,"deployed":6998,"Authority":6999,"fragment":7000,"Specially":7001,"situations":7002,"POP3":7003,"OpenSSH":7004,"TELNET":7005,"ISE":7006,"OAuth":7007,"SL":7008,"pg":7009,"risk":7010,"tiki":7011,"##Pack":7012,"##Desk":7013,"##gid":7014,"##VC":7015,"##Table":7016,"##Node":7017,"##Gallery":7018,"##UM":7019,"101":7020,"interact":7021,"##oop":7022,"CSP":7023,"##ipient":7024,"MyBulletinBoard":7025,"##151":7026,"V200R001":7027,"assumes":7028,"expand":7029,"Aruba":7030,"RC1":7031,"removed":7032,"communications":7033,"Guardium":7034,"Galaxy":7035,"##Create":7036,"safety":7037,"240":7038,"332":7039,"Cr":7040,"MK":7041,"break":7042,"kill":7043,"rw":7044,"ss":7045,"##uck":7046,"##Berry":7047,"##hosts":7048,"##Guard":7049,"obj":7050,"PHPKB":7051,"##loader":7052,"Chad":7053,"##iph":7054,"ACS":7055,"Arg":7056,"##6600":7057,"presence":7058,"owned":7059,"Investor":7060,"height":7061,"##onomy":7062,"4100":7063,"Branch":7064,"Magick":7065,"NF":7066,"##long":7067,"##Stack":7068,"##cus":7069,"##hanced":7070,"##No":7071,"##Url":7072,"##tamp":7073,"##forum":7074,"##utton":7075,"unrestricted":7076,"adap":7077,"displays":7078,"Enco":7079,"relev":7080,"Emulator":7081,"ext4":7082,"dissect":7083,"memcpy":7084,"attempting":7085,"submitting":7086,"goform":7087,"skin":7088,"Diagnostics":7089,"BlackBerry":7090,"establishing":7091,"##Device":7092,"Maintenance":7093,"SERVER":7094,"Dynamics":7095,"0b":7096,"4R3":7097,"Frame":7098,"GLO":7099,"Ice":7100,"Pub":7101,"Termin":7102,"care":7103,"roles":7104,"##got":7105,"##version":7106,"##HO":7107,"##tel":7108,"##tached":7109,"##inting":7110,"reduc":7111,"##istant":7112,"##rea":7113,"##reg":7114,"unat":7115,"##unistic":7116,"109":7117,"Servicing":7118,"SQLite":7119,"administer":7120,"##113":7121,"##01B":7122,"##Viewer":7123,"FP3":7124,"STDU":7125,"Transaction":7126,"MP4":7127,"CentOS":7128,"WNDR3700":7129,"##NAME":7130,"Parameter":7131,"Health":7132,"grant":7133,"##efined":7134,"environments":7135,"introduced":7136,"social":7137,"Bas":7138,"HDF":7139,"Pic":7140,"Ter":7141,"Vo":7142,"join":7143,"mask":7144,"##Dir":7145,"##ftp":7146,"##220":7147,"always":7148,"##quire":7149,"pool":7150,"Controll":7151,"##aml":7152,"##gex":7153,"impacted":7154,"parsed":7155,"APPS":7156,"##ipel":7157,"##ived":7158,"MDM9625":7159,"nonce":7160,"MediaTek":7161,"Permissions":7162,"GraphicsMagick":7163,"multipart":7164,"Toolkit":7165,"##Settings":7166,"appropriate":7167,"R7000":7168,"##Editor":7169,"OpenJDK":7170,"effective":7171,"libvirt":7172,"corresponding":7173,"Orchestrator":7174,"Paralle":7175,"Hitachi":7176,"320":7177,"366":7178,"900":7179,"BFD":7180,"DATA":7181,"K7":7182,"banner":7183,"cd":7184,"kvm":7185,"rd":7186,"rx":7187,"tick":7188,"##gg":7189,"##Zip":7190,"exif":7191,"phpbb":7192,"fill":7193,"##amb":7194,"##plus":7195,"strong":7196,"##705":7197,"V100R001":7198,"Simphony":7199,"##connect":7200,"timeout":7201,"mediaserver":7202,"attempted":7203,"customers":7204,"##aunch":7205,"Connections":7206,"Hosting":7207,"deny":7208,"libbfd":7209,"August":7210,"Chadha":7211,"Controllers":7212,"Django":7213,"HCM":7214,"JMX":7215,"PO":7216,"Pers":7217,"SGI":7218,"Top":7219,"Tiny":7220,"XSL":7221,"ef":7222,"false":7223,"sb":7224,"windows":7225,"##PF":7226,"##nm":7227,"##As":7228,"arra":7229,"##fully":7230,"##serial":7231,"##125":7232,"##355":7233,"Solar":7234,"##eek":7235,"Tracker":7236,"##apped":7237,"Reports":7238,"WNDR4500":7239,"JetBra":7240,"fragmented":7241,"bookmark":7242,"keywords":7243,"NetScaler":7244,"##Calendar":7245,"chipsets":7246,"mosConfig":7247,"opportunistic":7248,"unattended":7249,"JetBrains":7250,"865":7251,"BMC":7252,"HVM":7253,"JW":7254,"Kas":7255,"MAX":7256,"ON":7257,"Pivo":7258,"Quest":7259,"Ro":7260,"RDP":7261,"S8":7262,"TM":7263,"VLC":7264,"You":7265,"air":7266,"der":7267,"eS":7268,"now":7269,"sync":7270,"##rit":7271,"##bra":7272,"##fa":7273,"##onts":7274,"inline":7275,"##ecess":7276,"##arily":7277,"##ppler":7278,"##ension":7279,"##6400":7280,"desc":7281,"##ACK":7282,"##tance":7283,"spam":7284,"Reset":7285,"##netes":7286,"MDM9207C":7287,"negoti":7288,"V100R001C10SPC":7289,"0x0000000000":7290,"descriptors":7291,"monitoring":7292,"updating":7293,"month":7294,"QCA6574AU":7295,"##ubernetes":7296,"Pivotal":7297,"765":7298,"Dri":7299,"Dig":7300,"FOR":7301,"HR":7302,"PIN":7303,"Sl":7304,"TMM":7305,"gen":7306,"imm":7307,"sur":7308,"##rpc":7309,"##pt":7310,"##illing":7311,"prototype":7312,"##ssl":7313,"detect":7314,"develop":7315,"125":7316,"20060":7317,"Expo":7318,"##111":7319,"Libraries":7320,"June":7321,"publish":7322,"channels":7323,"##FTPD":7324,"General":7325,"closed":7326,"FILE":7327,"Extensions":7328,"decryption":7329,"##treme":7330,"LMY":7331,"##ulticast":7332,"060":7333,"1F":7334,"ED":7335,"Eval":7336,"Made":7337,"Serial":7338,"cli":7339,"sugg":7340,"##180":7341,"##Jet":7342,"##edit":7343,"activity":7344,"phar":7345,"3015":7346,"recipient":7347,"##ynos":7348,"##138":7349,"Trade":7350,"Alpha":7351,"CSCvg":7352,"##OrSystem":7353,"##persky":7354,"##ictionary":7355,"WNDR4500v3":7356,"Ma":7357,"Mong":7358,"Pand":7359,"Specif":7360,"SCM":7361,"Vi":7362,"Violation":7363,"categories":7364,"len":7365,"micro":7366,"pixel":7367,"ws":7368,"wiki":7369,"##St":7370,"##Ass":7371,"##ws":7372,"##750":7373,"##tas":7374,"##izing":7375,"enabling":7376,"abn":7377,"abuse":7378,"numer":7379,"##earning":7380,"REQ":7381,"MDM9645":7382,"V200R008C00":7383,"listener":7384,"Operating":7385,"terminate":7386,"Whats":7387,"clicking":7388,"V600R006C00SPC":7389,"##ahara":7390,"WNDR4300v2":7391,"engines":7392,"integrated":7393,"defeat":7394,"trusts":7395,"SCRIPT":7396,"Kaspersky":7397,"May":7398,"RMI":7399,"UAA":7400,"Xer":7401,"stri":7402,"##ius":7403,"##ipp":7404,"##Talk":7405,"##ares":7406,"##adget":7407,"20100":7408,"malloc":7409,"176":7410,"##ventory":7411,"##poses":7412,"Import":7413,"CSCvb":7414,"CODES":7415,"##greg":7416,"invoking":7417,"initiate":7418,"volume":7419,"routine":7420,"IPQ8074":7421,"libxml2":7422,"Omnibox":7423,"CODESYS":7424,"062":7425,"93":7426,"DW":7427,"Gover":7428,"Kubernetes":7429,"Window":7430,"styles":7431,"##ood":7432,"##Sys":7433,"##sor":7434,"##fb":7435,"##Update":7436,"##ench":7437,"##ques":7438,"1179":7439,"Ansible":7440,"##123":7441,"expansion":7442,"404":7443,"GNOME":7444,"replacing":7445,"ACLs":7446,"Malware":7447,"purposes":7448,"##embly":7449,"R6900":7450,"2a":7451,"262":7452,"Color":7453,"Nagios":7454,"OV":7455,"QNAP":7456,"RAR":7457,"XS":7458,"css":7459,"digital":7460,"e107":7461,"lar":7462,"others":7463,"your":7464,"##oser":7465,"##Impl":7466,"##n1":7467,"##Test":7468,"##RPC":7469,"##GV":7470,"##era":7471,"##rase":7472,"##cription":7473,"##ensitive":7474,"20098":7475,"##401":7476,"##INK":7477,"TIA":7478,"Alto":7479,"##maz":7480,"states":7481,"insecurely":7482,"##outing":7483,"Omni":7484,"Architec":7485,"archives":7486,"LE":7487,"Number":7488,"OPC":7489,"Tim":7490,"gra":7491,"hex":7492,"htaccess":7493,"sid":7494,"##lation":7495,"##land":7496,"##Str":7497,"##bc":7498,"##WW":7499,"remain":7500,"counter":7501,"what":7502,"107":7503,"comple":7504,"unaffected":7505,"perman":7506,"least":7507,"##112":7508,"Plan":7509,"190":7510,"modem":7511,"upgra":7512,"RTSP":7513,"emails":7514,"Loss":7515,"selected":7516,"##enced":7517,"tricking":7518,"##ahoo":7519,"Palo":7520,"Archive":7521,"InnoDB":7522,"E0506P":7523,"MantisBT":7524,"alternate":7525,"Segmentation":7526,"##Centre":7527,"##hostscript":7528,"relevant":7529,"BASE":7530,"Jul":7531,"Laser":7532,"MPEG":7533,"Mahara":7534,"mc":7535,"pod":7536,"right":7537,"vBulletin":7538,"##doc":7539,"##Sec":7540,"##fx":7541,"##FW":7542,"##Tree":7543,"##TLS":7544,"##atcher":7545,"##ibility":7546,"122":7547,"##karound":7548,"1500":7549,"Cognos":7550,"003":7551,"##8900":7552,"##175":7553,"binaries":7554,"##aran":7555,"Classifieds":7556,"Final":7557,"GitHub":7558,"V100R001C20":7559,"Groupware":7560,"Order":7561,"threads":7562,"V200R003C00":7563,"radio":7564,"recommend":7565,"hyper":7566,"happen":7567,"Govern":7568,"Aff":7569,"HUA":7570,"IQ":7571,"Pages":7572,"R8900":7573,"XM":7574,"ZTE":7575,"day":7576,"gl":7577,"pas":7578,"push":7579,"##uran":7580,"##mgr":7581,"##Block":7582,"##2p":7583,"##orum":7584,"##enting":7585,"##arb":7586,"exchange":7587,"unserial":7588,"##idget":7589,"profiles":7590,"##otos":7591,"phpinfo":7592,"online":7593,"inspection":7594,"##tention":7595,"relationsh":7596,"partition":7597,"##ANA":7598,"downloading":7599,"##letter":7600,"##Plus":7601,"Export":7602,"##3600":7603,"SNC":7604,"##WEI":7605,"Objects":7606,"##State":7607,"svg":7608,"Streaming":7609,"timestamp":7610,"HUAWEI":7611,"AES":7612,"LX":7613,"L09":7614,"NNM":7615,"Pe":7616,"Q16":7617,"Queue":7618,"RO":7619,"R4":7620,"Rails":7621,"String":7622,"Scale":7623,"gp":7624,"kits":7625,"##Pa":7626,"##Sub":7627,"##mi":7628,"##3d":7629,"##roy":7630,"##vertis":7631,"Invision":7632,"Render":7633,"##allen":7634,"##ipt":7635,"sctp":7636,"Depend":7637,"gets":7638,"##161":7639,"Show":7640,"SDKs":7641,"personal":7642,"FP5":7643,"Jasper":7644,"Linksys":7645,"Distribution":7646,"AsyncOS":7647,"ABB":7648,"Human":7649,"XMP":7650,"uri":7651,"vs":7652,"wa":7653,"xen":7654,"##rec":7655,"##riter":7656,"##Mode":7657,"##HA":7658,"##Http":7659,"excl":7660,"isol":7661,"##ague":7662,"##tically":7663,"##format":7664,"impl":7665,"reader":7666,"shop":7667,"iframe":7668,"regist":7669,"R28":7670,"Mediaserver":7671,"##IG2":7672,"Resources":7673,"projects":7674,"V100R001C30":7675,"##lipse":7676,"V200R005C":7677,"column":7678,"intercepting":7679,"larger":7680,"242":7681,"Sup":7682,"WAG":7683,"bo":7684,"cent":7685,"fc":7686,"func":7687,"rather":7688,"##bl":7689,"##Write":7690,"intent":7691,"##itas":7692,"##lot":7693,"##tools":7694,"Protector":7695,"JavaFX":7696,"Enhanced":7697,"becom":7698,"Article":7699,"##R2000":7700,"blocking":7701,"##297":7702,"Packet":7703,"CSCvd":7704,"Veritas":7705,"MP1":7706,"iPod":7707,"##process":7708,"##DAV":7709,"algorithms":7710,"established":7711,"V500R001C20SPC100":7712,"actual":7713,"extraction":7714,"##BALS":7715,"Selection":7716,"Unauthenticated":7717,"explicitly":7718,"inconsistent":7719,"GLOBALS":7720,"E0506P09":7721,"##allenge":7722,"4R1":7723,"510":7724,"Energy":7725,"Routing":7726,"SAN":7727,"Single":7728,"cameras":7729,"notes":7730,"sa":7731,"##FT":7732,"##ja":7733,"##tilities":7734,"##enu":7735,"attached":7736,"webserver":7737,"1100":7738,"##works":7739,"subsequently":7740,"sharing":7741,"MS3000":7742,"##ocum":7743,"generating":7744,"transport":7745,"redirects":7746,"symlinks":7747,"##999":7748,"Associa":7749,"30080":7750,"Market":7751,"Feed":7752,"legacy":7753,"Skype":7754,"QCN":7755,"30418":7756,"##Document":7757,"merge":7758,"snapshot":7759,"documentation":7760,"JasperReports":7761,"Fu":7762,"From":7763,"GW":7764,"OLE":7765,"am":7766,"af":7767,"blind":7768,"dat":7769,"jar":7770,"pwd":7771,"##Ind":7772,"##Cache":7773,"##orb":7774,"##raft":7775,"##ulate":7776,"rem":7777,"##coin":7778,"Inform":7779,"prim":7780,"123":7781,"Exynos":7782,"##oose":7783,"outbound":7784,"Archer":7785,"easy":7786,"##Input":7787,"FP1":7788,"ARP":7789,"4103":7790,"startup":7791,"##mbol":7792,"Nextcloud":7793,"matching":7794,"syntax":7795,"##fender":7796,"Splunk":7797,"Exposure":7798,"##ocumented":7799,"Box":7800,"C1":7801,"ESA":7802,"H5":7803,"M2":7804,"POS":7805,"Your":7806,"ful":7807,"faq":7808,"ge":7809,"gn":7810,"jpc":7811,"mmap":7812,"sil":7813,"turn":7814,"##ez":7815,"##Op":7816,"##Security":7817,"##bases":7818,"##Audio":7819,"##CX":7820,"##HD":7821,"although":7822,"belong":7823,"contin":7824,"unit":7825,"##igo":7826,"20050":7827,"##114":7828,"ids":7829,"Plone":7830,"manual":7831,"prec":7832,"228":7833,"linked":7834,"Arm":7835,"Designer":7836,"##CAD":7837,"WNR2000":7838,"worker":7839,"ARM":7840,"ipv6":7841,"Devices":7842,"diag":7843,"GroupWise":7844,"VideoLAN":7845,"closing":7846,"Matrix":7847,"considered":7848,"disputed":7849,"wordpress":7850,"OOPS":7851,"Honor":7852,"ADMIN":7853,"answer":7854,"##luence":7855,"comparison":7856,"abnormal":7857,"July":7858,"665":7859,"AN":7860,"AX":7861,"BB":7862,"Flow":7863,"Glass":7864,"Ips":7865,"L2":7866,"LSA":7867,"R8":7868,"RAX":7869,"caching":7870,"##Open":7871,"##roc":7872,"##ngra":7873,"parses":7874,"SSID":7875,"Deli":7876,"regression":7877,"SINA":7878,"##Content":7879,"Points":7880,"imap":7881,"Expression":7882,"##MICS":7883,"DirectX":7884,"means":7885,"revok":7886,"actually":7887,"granted":7888,"##EXT":7889,"whitelist":7890,"iSupport":7891,"compiled":7892,"Terminal":7893,"carefully":7894,"SINAMICS":7895,"Aud":7896,"CG":7897,"Header":7898,"Keys":7899,"OR":7900,"P1":7901,"Sound":7902,"ts":7903,"##util":7904,"##dy":7905,"##Pad":7906,"##Com":7907,"##LI":7908,"##onet":7909,"##ittle":7910,"##apid":7911,"localhost":7912,"##ups":7913,"##ackson":7914,"provision":7915,"Delete":7916,"Details":7917,"smb":7918,"##CAM":7919,"##witter":7920,"Static":7921,"PDFium":7922,"Redirect":7923,"##Report":7924,"Rece":7925,"##Def":7926,"CUBE":7927,"##92B":7928,"##Objects":7929,"inserted":7930,"MagickCore":7931,"2D":7932,"During":7933,"Ess":7934,"Every":7935,"JN":7936,"License":7937,"Of":7938,"Since":7939,"ax":7940,"ban":7941,"bfd":7942,"cas":7943,"iStore":7944,"##Proper":7945,"##DN":7946,"##650":7947,"##LT":7948,"##Host":7949,"##GB":7950,"##tit":7951,"##hest":7952,"##ilit":7953,"##inc":7954,"##ental":7955,"##arr":7956,"##etry":7957,"20200":7958,"##entry":7959,"##uture":7960,"fork":7961,"##andid":7962,"Inventory":7963,"##odb":7964,"crashing":7965,"subd":7966,"##closed":7967,"SEP":7968,"##185":7969,"backdoor":7970,"CRR":7971,"##ERA":7972,"Notification":7973,"CSCuh":7974,"Infin":7975,"Parser":7976,"accepted":7977,"##Touch":7978,"severity":7979,"wildcard":7980,"words":7981,"final":7982,"organization":7983,"2e":7984,"275":7985,"860":7986,"Amaz":7987,"Low":7988,"Lack":7989,"PGP":7990,"R79":7991,"Xchange":7992,"dl":7993,"ez":7994,"front":7995,"lua":7996,"tap":7997,"##aj":7998,"##P2":7999,"##mem":8000,"##tk":8001,"##haps":8002,"##CF":8003,"##ftpd":8004,"##2150":8005,"##ula":8006,"refl":8007,"##leet":8008,"##idence":8009,"##SSION":8010,"106":8011,"162":8012,"Scan":8013,"opt":8014,"268":8015,"ASM":8016,"limits":8017,"##trate":8018,"publicly":8019,"removing":8020,"disclosed":8021,"timer":8022,"##void":8023,"##Stats":8024,"##TION":8025,"minim":8026,"Clone":8027,"appliances":8028,"facilit":8029,"picture":8030,"printing":8031,"listening":8032,"##Decode":8033,"copied":8034,"##Builder":8035,"WAGO":8036,"fully":8037,"750":8038,"HM":8039,"Kam":8040,"Method":8041,"Tag":8042,"YAML":8043,"Yahoo":8044,"bg":8045,"done":8046,"ff":8047,"lite":8048,"##di":8049,"##rus":8050,"##aut":8051,"##Domain":8052,"##Call":8053,"##210":8054,"##360":8055,"##Tr":8056,"##Go":8057,"##ilia":8058,"##ining":8059,"reuse":8060,"regex":8061,"##ars":8062,"articles":8063,"##acts":8064,"##uge":8065,"Servlet":8066,"140":8067,"tex":8068,"##utes":8069,"definition":8070,"##170":8071,"loads":8072,"##conf":8073,"tricked":8074,"Subject":8075,"##aults":8076,"SYN":8077,"##atellite":8078,"Replication":8079,"workaround":8080,"tickets":8081,"QCN7":8082,"220":8083,"6000":8084,"Cacti":8085,"HOME":8086,"MM":8087,"Self":8088,"Utilities":8089,"VI":8090,"Val":8091,"avoid":8092,"google":8093,"ic":8094,"p1":8095,"r11":8096,"##upload":8097,"##pn":8098,"##Fish":8099,"##NU":8100,"##erty":8101,"##rion":8102,"webpage":8103,"docker":8104,"admins":8105,"##udent":8106,"dim":8107,"##301":8108,"IPsec":8109,"team":8110,"##80211":8111,"32bit":8112,"currently":8113,"##INE":8114,"Quantum":8115,"554":8116,"temporarily":8117,"Workflow":8118,"##Share":8119,"flags":8120,"V500R001C20SPC300":8121,"QCS404":8122,"##utralization":8123,"treated":8124,"QCM2150":8125,"##vertisement":8126,"Ipswitch":8127,"Folder":8128,"MOD":8129,"Qt":8130,"WA":8131,"bank":8132,"mg":8133,"oracle":8134,"pix":8135,"##Out":8136,"##Bit":8137,"##onder":8138,"##orter":8139,"##tiff":8140,"##itan":8141,"##ulative":8142,"##rier":8143,"##atter":8144,"forge":8145,"##owngra":8146,"##ifies":8147,"112":8148,"placed":8149,"stat":8150,"##archive":8151,"OpenID":8152,"##121":8153,"CSCus":8154,"##ograph":8155,"##ediate":8156,"##6200":8157,"Phil":8158,"RES":8159,"Connected":8160,"Element":8161,"FreeType":8162,"Works":8163,"summary":8164,"SCTP":8165,"##LOG":8166,"jobs":8167,"CMD":8168,"highest":8169,"environmental":8170,"##CII":8171,"Subsystem":8172,"##ecessary":8173,"1b":8174,"Ajax":8175,"Dem":8176,"Hash":8177,"Item":8178,"Mar":8179,"PG":8180,"TAR":8181,"Wiki":8182,"cast":8183,"fonts":8184,"gadget":8185,"hide":8186,"iter":8187,"##rets":8188,"##Of":8189,"##Shell":8190,"##DV":8191,"##xel":8192,"##Error":8193,"##GR":8194,"##onical":8195,"##rator":8196,"thereby":8197,"priv":8198,"dead":8199,"##elect":8200,"filtration":8201,"SDL":8202,"integration":8203,"172":8204,"Forums":8205,"305":8206,"abort":8207,"abused":8208,"##ipan":8209,"emulator":8210,"occurred":8211,"Allow":8212,"spaw":8213,"1X47":8214,"visible":8215,"Touch":8216,"rendered":8217,"##LANCE":8218,"Cyber":8219,"undocumented":8220,"AMD":8221,"AnyConnect":8222,"SCALANCE":8223,"scenarios":8224,"Saipan":8225,"R7900":8226,"0r":8227,"0ubuntu":8228,"555":8229,"FX":8230,"Fleet":8231,"Kon":8232,"M1":8233,"PIC":8234,"Please":8235,"Risk":8236,"Rockw":8237,"cv":8238,"drag":8239,"lines":8240,"salt":8241,"v5":8242,"##uy":8243,"##aac":8244,"##mg":8245,"##mber":8246,"##gate":8247,"##win":8248,"##Winds":8249,"##HI":8250,"##ised":8251,"##reens":8252,"proto":8253,"103":8254,"SP5":8255,"Addition":8256,"##password":8257,"UID":8258,"##ARC":8259,"##6500":8260,"Vision":8261,"0x00":8262,"Nova":8263,"selection":8264,"CSCuv":8265,"submitted":8266,"simul":8267,"broker":8268,"Homepage":8269,"portion":8270,"disconnect":8271,"Parallels":8272,"Persistent":8273,"SolarWinds":8274,"Xerox":8275,"Rockwell":8276,"380":8277,"443":8278,"Authenticated":8279,"Ble":8280,"NFC":8281,"R8000":8282,"Xpdf":8283,"ZEN":8284,"branch":8285,"edition":8286,"pin":8287,"pag":8288,"tty":8289,"ul":8290,"xfs":8291,"##Scripts":8292,"##IK":8293,"##Disco":8294,"##Agent":8295,"##ks":8296,"##VNC":8297,"##Master":8298,"alias":8299,"arbit":8300,"##lie":8301,"reserv":8302,"SPA":8303,"##pool":8304,"30172":8305,"##APP":8306,"leaked":8307,"MDM9615":8308,"Modbus":8309,"filtered":8310,"##spot":8311,"ALPS":8312,"##DATE":8313,"PostScript":8314,"##links":8315,"##Only":8316,"issued":8317,"resolve":8318,"poisoning":8319,"RHEL":8320,"techniques":8321,"permanent":8322,"WNR2000v5":8323,"GlassFish":8324,"QCN7605":8325,"8p":8326,"DV":8327,"Gig":8328,"Pid":8329,"Vari":8330,"WSA":8331,"World":8332,"cn":8333,"gr":8334,"##date":8335,"##client":8336,"##ki":8337,"##vec":8338,"##za":8339,"##agent":8340,"##ife":8341,"##quer":8342,"1189":8343,"compression":8344,"SDP":8345,"##seudo":8346,"##10C00B":8347,"actionable":8348,"recogn":8349,"OfficeScan":8350,"builds":8351,"background":8352,"##Context":8353,"insufficiently":8354,"Visio":8355,"##147":8356,"spreads":8357,"1X44":8358,"architec":8359,"Spam":8360,"CSCuu":8361,"##adequate":8362,"streams":8363,"std":8364,"TL00C":8365,"simp":8366,"XR500":8367,"undefined":8368,"ECD":8369,"entered":8370,"permits":8371,"RADIUS":8372,"restarts":8373,"effort":8374,"863":8375,"Dot":8376,"History":8377,"RF":8378,"SCO":8379,"Sync":8380,"Tiki":8381,"his":8382,"ppp":8383,"w3":8384,"##dn":8385,"##ek":8386,"##Sight":8387,"##tName":8388,"##Tech":8389,"##Map":8390,"##Header":8391,"reass":8392,"forged":8393,"forgot":8394,"##lim":8395,"Incomplete":8396,"116":8397,"##olf":8398,"seed":8399,"1829":8400,"containers":8401,"shown":8402,"SELE":8403,"##omi":8404,"verified":8405,"SIG":8406,"##491":8407,"##nome":8408,"lengths":8409,"V100R0":8410,"ends":8411,"EXIF":8412,"HF1":8413,"##Track":8414,"##OOPS":8415,"##Resource":8416,"interpreted":8417,"NAME":8418,"UL00":8419,"Centreon":8420,"Credentials":8421,"LaserJet":8422,"##orbis":8423,"Amazon":8424,"dimension":8425,"Pidgin":8426,"DL":8427,"GD":8428,"HANA":8429,"LP":8430,"MIC":8431,"XOOPS":8432,"batch":8433,"cm":8434,"dm":8435,"pf":8436,"serendipity":8437,"##day":8438,"##rer":8439,"##Item":8440,"##BI":8441,"##hi":8442,"##gal":8443,"##415":8444,"##RS":8445,"##ZE":8446,"##JB":8447,"inet":8448,"##tat":8449,"##otor":8450,"##acement":8451,"Inappropriate":8452,"##ola":8453,"##aya":8454,"152":8455,"Copy":8456,"AP4":8457,"manually":8458,"SSO":8459,"##anges":8460,"CSCue":8461,"International":8462,"newline":8463,"##ceptions":8464,"transition":8465,"##IPS":8466,"SRG":8467,"INV":8468,"##DBC":8469,"CSCuy":8470,"Assistant":8471,"November":8472,"7u40":8473,"##state":8474,"collision":8475,"V500R001C00SPH":8476,"dwarf":8477,"libcurl":8478,"combined":8479,"escaped":8480,"##Array":8481,"Struts":8482,"Eclipse":8483,"immediate":8484,"Bur":8485,"Cat":8486,"Dereference":8487,"Gro":8488,"Part":8489,"cb":8490,"downgra":8491,"ec":8492,"san":8493,"tit":8494,"##open":8495,"##dump":8496,"##Power":8497,"##pic":8498,"##Be":8499,"##ATE":8500,"##Vault":8501,"##Family":8502,"##TO":8503,"##Trace":8504,"##jpeg":8505,"##Me":8506,"##title":8507,"##alm":8508,"##ede":8509,"exfil":8510,"contacts":8511,"##vert":8512,"Initi":8513,"deep":8514,"compiler":8515,"exploiting":8516,"systemd":8517,"OpenOffice":8518,"CSCut":8519,"anyone":8520,"##opt":8521,"NetIQ":8522,"Therefore":8523,"Privileges":8524,"visited":8525,"##rc2":8526,"maintenance":8527,"##anitized":8528,"CSCvi":8529,"Panels":8530,"calculate":8531,"Skia":8532,"##NECT":8533,"Mercu":8534,"AJAX":8535,"##LDAP":8536,"clipboard":8537,"WNDR3700v4":8538,"Delivery":8539,"364":8540,"Ghostscript":8541,"NSS":8542,"Watch":8543,"X11":8544,"m3":8545,"none":8546,"sq":8547,"v6":8548,"voice":8549,"##amm":8550,"##mask":8551,"##xml":8552,"##tone":8553,"##Ver":8554,"##Vis":8555,"##Line":8556,"##Utils":8557,"reused":8558,"##arp":8559,"continuous":8560,"unp":8561,"##SSID":8562,"standalone":8563,"PRE":8564,"preferences":8565,"##ivid":8566,"SMP":8567,"##CSI":8568,"249":8569,"241":8570,"##Provider":8571,"DCNM":8572,"##Plan":8573,"##libarr":8574,"RC3":8575,"IFIX":8576,"tricks":8577,"Options":8578,"Catalog":8579,"##serve":8580,"invoke":8581,"Booking":8582,"JasPer":8583,"VulnDisco":8584,"instructions":8585,"assignment":8586,"V100R003":8587,"EVA":8588,"WHM":8589,"V100R001C00SPC":8590,"SELECT":8591,"362":8592,"DES":8593,"EZ":8594,"Hi":8595,"ISS":8596,"OSS":8597,"Pdf":8598,"QU":8599,"big":8600,"qemu":8601,"tests":8602,"##band":8603,"##nail":8604,"##cre":8605,"##Color":8606,"##MD":8607,"ord":8608,"##acher":8609,"dom":8610,"env":8611,"20063":8612,"Acc":8613,"constant":8614,"performance":8615,"notify":8616,"Dolibarr":8617,"V100R006":8618,"identifiers":8619,"##BEL":8620,"CSCuw":8621,"CSCuz":8622,"terminated":8623,"probe":8624,"CUCM":8625,"Registry":8626,"Registration":8627,"subjectAl":8628,"markup":8629,"Events":8630,"30105":8631,"30102":8632,"30452":8633,"30456":8634,"destroy":8635,"equal":8636,"##Install":8637,"latest":8638,"##iphers":8639,"arrays":8640,"LMY48":8641,"Governance":8642,"registers":8643,"TL00C01B":8644,"subjectAltName":8645,"310":8646,"Audit":8647,"Debug":8648,"Drop":8649,"HL":8650,"IV":8651,"LMS":8652,"Lending":8653,"bridge":8654,"fast":8655,"ftpd":8656,"hom":8657,"keep":8658,"ptrace":8659,"v20":8660,"##Ctrl":8661,"##tap":8662,"##edger":8663,"##ride":8664,"##otel":8665,"unix":8666,"uncontrolled":8667,"##irrel":8668,"##lide":8669,"userid":8670,"##urement":8671,"##tool":8672,"WebDAV":8673,"challenge":8674,"##oops":8675,"185":8676,"networking":8677,"OpenType":8678,"CSCur":8679,"prep":8680,"failures":8681,"0x9":8682,"evidence":8683,"Workspace":8684,"##7180":8685,"receives":8686,"secrets":8687,"SC7180":8688,"30142":8689,"Aironet":8690,"0x00000000000":8691,"Sametime":8692,"EMF":8693,"dwg":8694,"approach":8695,"30106":8696,"30457":8697,"E0504":8698,"Zyxel":8699,"##rarily":8700,"arbitrarily":8701,"0u":8702,"4000":8703,"9297":8704,"Ava":8705,"Bound":8706,"Bla":8707,"CORS":8708,"EA":8709,"Front":8710,"GX":8711,"Jabber":8712,"LA":8713,"Launch":8714,"Nor":8715,"OWA":8716,"ZX":8717,"ciphers":8718,"dere":8719,"tm":8720,"##cr":8721,"##cy":8722,"##Card":8723,"##iences":8724,"##Reader":8725,"##cking":8726,"repos":8727,"unpack":8728,"adodb":8729,"Exception":8730,"##axonomy":8731,"233":8732,"Autod":8733,"Libav":8734,"Editions":8735,"Interactive":8736,"ASCII":8737,"##Plugin":8738,"unsanitized":8739,"Preview":8740,"beta1":8741,"serialization":8742,"behalf":8743,"mini":8744,"30143":8745,"Squirrel":8746,"decompression":8747,"IKEv1":8748,"WebSocket":8749,"issuing":8750,"Limits":8751,"interpretation":8752,"nickname":8753,"Uniscribe":8754,"##arbage":8755,"9i":8756,"Iss":8757,"Ich":8758,"KDC":8759,"Mu":8760,"Non":8761,"Pan":8762,"Son":8763,"echo":8764,"rle":8765,"##uit":8766,"##Pal":8767,"##xg":8768,"##wp":8769,"##function":8770,"##264":8771,"##935":8772,"##vas":8773,"##Tag":8774,"##Lis":8775,"##tag":8776,"##rapper":8777,"belie":8778,"exceptions":8779,"CVS":8780,"##actions":8781,"##ems":8782,"1200":8783,"databases":8784,"20099":8785,"passph":8786,"Scheduler":8787,"expi":8788,"##ockets":8789,"weaker":8790,"TE60":8791,"diagnostic":8792,"Trusted":8793,"buf":8794,"1R4":8795,"mp3":8796,"invoked":8797,"##HTTP":8798,"extracted":8799,"synchron":8800,"EN100":8801,"interv":8802,"Portable":8803,"Fuj":8804,"278":8805,"Bright":8806,"DBMS":8807,"EL":8808,"Game":8809,"Ign":8810,"War":8811,"Wonder":8812,"cell":8813,"nl":8814,"vCenter":8815,"##Stri":8816,"##mond":8817,"##Atom":8818,"##cade":8819,"##field":8820,"##386":8821,"##Ticket":8822,"##itaro":8823,"arm":8824,"##utt":8825,"##attr":8826,"##lyph":8827,"105":8828,"filemanager":8829,"asn1":8830,"##cean":8831,"##201":8832,"Prototype":8833,"30138":8834,"##utex":8835,"##ATION":8836,"SIEM":8837,"##166":8838,"reporting":8839,"subscri":8840,"##Inter":8841,"WND":8842,"payment":8843,"MDM9205":8844,"ISO":8845,"Parse":8846,"bootloader":8847,"30140":8848,"98000":8849,"30495":8850,"30498":8851,"30497":8852,"30493":8853,"December":8854,"clone":8855,"UPDATE":8856,"##RTC":8857,"##Loader":8858,"Broadcom":8859,"##entinel":8860,"PASS":8861,"Fedora":8862,"Mongo":8863,"central":8864,"Ichitaro":8865,"2f":8866,"232":8867,"BETA":8868,"Gate":8869,"HNAP":8870,"Lights":8871,"Piw":8872,"Satellite":8873,"TABLE":8874,"VS":8875,"Wav":8876,"aud":8877,"bund":8878,"deb":8879,"dictionary":8880,"rt":8881,"suc":8882,"tiny":8883,"##rency":8884,"##Pre":8885,"##Post":8886,"##kin":8887,"##VMS":8888,"##iqu":8889,"##TOS":8890,"##orta":8891,"##002":8892,"##adm":8893,"##adver":8894,"forums":8895,"##ids":8896,"##idi":8897,"##itel":8898,"1082":8899,"1084":8900,"##atal":8901,"##olt":8902,"WebGL":8903,"##obot":8904,"parts":8905,"##player":8906,"##11C":8907,"##aria":8908,"sender":8909,"shopping":8910,"CSCux":8911,"openssl":8912,"##illance":8913,"Suite8":8914,"repair":8915,"Sep":8916,"Insp":8917,"Status":8918,"##Policy":8919,"receiver":8920,"##GImage":8921,"PCI":8922,"CF27":8923,"country":8924,"BigFix":8925,"DOORS":8926,"activate":8927,"interpreter":8928,"1x":8929,"FRP":8930,"LT":8931,"MDS":8932,"Ob":8933,"PEM":8934,"R8500":8935,"Sensitive":8936,"pol":8937,"pseudo":8938,"tries":8939,"##ho":8940,"##4S":8941,"##Msg":8942,"##rate":8943,"##inet":8944,"##arn":8945,"##defender":8946,"##une":8947,"##unted":8948,"##irror":8949,"##pective":8950,"dep":8951,"##102":8952,"Ref":8953,"##508":8954,"libarchive":8955,"setgid":8956,"emulation":8957,"##CPU":8958,"4240":8959,"##ifications":8960,"verifying":8961,"specification":8962,"##162":8963,"##ancy":8964,"252":8965,"eventually":8966,"##itories":8967,"##Profile":8968,"CSCuq":8969,"##Shift":8970,"5600":8971,"##protected":8972,"6500":8973,"NXT":8974,"JBIG2":8975,"constructed":8976,"ADC":8977,"WPA":8978,"NetWare":8979,"FI9":8980,"bindings":8981,"refresh":8982,"##uggling":8983,"factor":8984,"DNP3":8985,"V100R002C00SPC":8986,"DP300":8987,"##ovy":8988,"adapter":8989,"Encoding":8990,"VoIP":8991,"effectively":8992,"##andidate":8993,"Kamorta":8994,"downgrade":8995,"Autodesk":8996,"369":8997,"CB":8998,"Fos":8999,"JAX":9000,"M5":9001,"P8":9002,"Secu":9003,"dv":9004,"fact":9005,"hel":9006,"pp":9007,"room":9008,"sizes":9009,"##ued":9010,"##KMP":9011,"##DT":9012,"##mes":9013,"##Bl":9014,"##clear":9015,"##gres":9016,"##Cl":9017,"##jo":9018,"##LY":9019,"##RM":9020,"##HS":9021,"##Zone":9022,"inadver":9023,"##hevc":9024,"##isclosed":9025,"##rive":9026,"##asy":9027,"##ifest":9028,"##ibana":9029,"1130":9030,"1125":9031,"2001":9032,"##tropy":9033,"##upported":9034,"##4019":9035,"tele":9036,"mism":9037,"##ops":9038,"NetBackup":9039,"##socket":9040,"##752":9041,"Poppler":9042,"##ateral":9043,"Alert":9044,"WorkCentre":9045,"Ready":9046,"##achine":9047,"FPX":9048,"CSCuj":9049,"Printer":9050,"Downloads":9051,"MQTT":9052,"DTD":9053,"letter":9054,"destr":9055,"ArcSight":9056,"hotfix":9057,"V300R001C01":9058,"WNR20":9059,"XMPP":9060,"##Index":9061,"V100R011C":9062,"immediately":9063,"MongoDB":9064,"inadvertent":9065,"080":9066,"2x":9067,"Cam":9068,"Find":9069,"Gu":9070,"KE":9071,"March":9072,"PH":9073,"Speed":9074,"T3":9075,"Tensor":9076,"ct":9077,"future":9078,"l2":9079,"##ender":9080,"##250":9081,"##Fo":9082,"##ores":9083,"rej":9084,"##ason":9085,"##irection":9086,"##query":9087,"appending":9088,"WebRTC":9089,"discovery":9090,"OSPF":9091,"163":9092,"##imbra":9093,"##omb":9094,"CSCug":9095,"Scanner":9096,"RTU":9097,"Also":9098,"displaying":9099,"##keley":9100,"RBAC":9101,"##xxx":9102,"exhaust":9103,"Bitdefender":9104,"undisclosed":9105,"OPERA":9106,"CallManager":9107,"Avaya":9108,"svn":9109,"OpenJPEG":9110,"##mfony":9111,"regardless":9112,"Berkeley":9113,"Public":9114,"##ipeline":9115,"XSLT":9116,"developers":9117,"m3u":9118,"270":9119,"360":9120,"3R1":9121,"Bel":9122,"Cute":9123,"DU":9124,"Fre":9125,"LZ":9126,"RPM":9127,"Using":9128,"VER":9129,"href":9130,"lp":9131,"light":9132,"mix":9133,"sr":9134,"vague":9135,"wav":9136,"##lab":9137,"##Safe":9138,"##ct":9139,"##Ext":9140,"##km":9141,"##TA":9142,"##New":9143,"##Minder":9144,"##loy":9145,"##ident":9146,"##ugar":9147,"1063":9148,"SPR":9149,"##tified":9150,"Acco":9151,"##pdesk":9152,"gaining":9153,"##117":9154,"Plesk":9155,"sched":9156,"scsi":9157,"Shared":9158,"##ARY":9159,"machines":9160,"syscall":9161,"##taneous":9162,"showed":9163,"ARC":9164,"TE50":9165,"TE30":9166,"agents":9167,"connects":9168,"sections":9169,"Register":9170,"meas":9171,"Payment":9172,"Anywhere":9173,"FortiOS":9174,"produce":9175,"decompile":9176,"##Files":9177,"deliver":9178,"V100R002C00":9179,"V500R001C00SPC500":9180,"truncation":9181,"sockets":9182,"##Address":9183,"LibreOffice":9184,"disruption":9185,"WhatsApp":9186,"Associates":9187,"##Trust":9188,"spreadsheet":9189,"265":9190,"389":9191,"550":9192,"709":9193,"And":9194,"Camp":9195,"Den":9196,"Kibana":9197,"Leg":9198,"V16":9199,"aw":9200,"bra":9201,"ca":9202,"ePO":9203,"gs":9204,"garbage":9205,"sg":9206,"utf":9207,"viol":9208,"##doo":9209,"##Size":9210,"##EP":9211,"##230":9212,"##6174":9213,"##FIN":9214,"##WG":9215,"attr":9216,"##abb":9217,"203":9218,"##ager":9219,"##ada":9220,"##apan":9221,"SP7":9222,"Webs":9223,"##trusion":9224,"perl":9225,"parties":9226,"libX":9227,"004":9228,"##ferencing":9229,"OpenShift":9230,"##3200":9231,"##ONE":9232,"Temp":9233,"CREA":9234,"STR":9235,"ipv4":9236,"TE40":9237,"rc2":9238,"rc4":9239,"Subversion":9240,"Generator":9241,"referenced":9242,"R6100":9243,"DELE":9244,"IPQ4019":9245,"produces":9246,"permitted":9247,"PKCS":9248,"##Load":9249,"Cryptograph":9250,"MAIL":9251,"ABAP":9252,"##Disp":9253,"ISAKMP":9254,"titles":9255,"762":9256,"Atom":9257,"B1":9258,"DX":9259,"D7000":9260,"MMS":9261,"NB":9262,"Pix":9263,"Rapid":9264,"Sour":9265,"TSM":9266,"V13":9267,"aid":9268,"band":9269,"hold":9270,"mt":9271,"pi":9272,"##eh":9273,"##buf":9274,"##Cat":9275,"##CON":9276,"##840":9277,"##RD":9278,"##Help":9279,"##GRA":9280,"##tate":9281,"##antage":9282,"forcing":9283,"unus":9284,"##email":9285,"##elco":9286,"locale":9287,"conflic":9288,"##304":9289,"CSCud":9290,"recent":9291,"Solr":9292,"RTF":9293,"##141":9294,"##821":9295,"authority":9296,"##Reg":9297,"CloudForms":9298,"presume":9299,"Collection":9300,"20058":9301,"QCA6174":9302,"hosted":9303,"ICQ":9304,"PROTOS":9305,"DTLS":9306,"decompress":9307,"Handling":9308,"ET200":9309,"simply":9310,"CREATE":9311,"Eng":9312,"HID":9313,"L21":9314,"Labs":9315,"Ledger":9316,"Motor":9317,"OCS":9318,"Ops":9319,"RTP":9320,"XI":9321,"bas":9322,"eDirectory":9323,"nt":9324,"ntp":9325,"ring":9326,"scal":9327,"sol":9328,"success":9329,"saving":9330,"tx":9331,"vb":9332,"##len":9333,"##OU":9334,"##yr":9335,"##metry":9336,"##creen":9337,"##R9":9338,"##Raw":9339,"##HE":9340,"inher":9341,"209":9342,"##ato":9343,"onto":9344,"##quis":9345,"compile":9346,"##umed":9347,"admincp":9348,"traverse":9349,"##pose":9350,"stale":9351,"##aven":9352,"Internal":9353,"##325":9354,"##LES":9355,"newer":9356,"optim":9357,"Composer":9358,"NetApp":9359,"##ARE":9360,"##times":9361,"generic":9362,"##MER":9363,"##Logik":9364,"Interim":9365,"ImageIO":9366,"motion":9367,"##ERY":9368,"Winamp":9369,"Exponent":9370,"##723":9371,"Automatic":9372,"Collateral":9373,"Commons":9374,"circum":9375,"##service":9376,"##Template":9377,"Expert":9378,"RBS50":9379,"sshd":9380,"30243":9381,"SonicOS":9382,"Forwarded":9383,"NFV":9384,"HRMS":9385,"V200R005C32":9386,"##Property":9387,"simultaneous":9388,"017":9389,"Am":9390,"AOL":9391,"BD":9392,"BR":9393,"Bos":9394,"BMX":9395,"FC":9396,"GR":9397,"Ghost":9398,"JVM":9399,"OID":9400,"Odoo":9401,"Round":9402,"Random":9403,"Sugar":9404,"Zimbra":9405,"multicast":9406,"ntd":9407,"sem":9408,"##KS":9409,"##ny":9410,"##Edge":9411,"##kb":9412,"##kg":9413,"##Crypt":9414,"##350":9415,"##Max":9416,"##Machine":9417,"##JECT":9418,"##erg":9419,"##org":9420,"##ena":9421,"##ette":9422,"##adu":9423,"##idth":9424,"proceed":9425,"##pecting":9426,"webmail":9427,"company":9428,"##shift":9429,"modifications":9430,"##amav":9431,"Extreme":9432,"##passwd":9433,"Activity":9434,"144":9435,"NOT":9436,"PRTL":9437,"AVI":9438,"quiz":9439,"schedul":9440,"##SEC":9441,"engineering":9442,"CAB":9443,"encounter":9444,"##Proxy":9445,"unsupported":9446,"starts":9447,"websites":9448,"retrieved":9449,"constructor":9450,"launching":9451,"##OOT":9452,"autocomplete":9453,"Malicious":9454,"AFM":9455,"Capture":9456,"samsung":9457,"QCA9379":9458,"tamper":9459,"Facebook":9460,"independent":9461,"Argument":9462,"relationship":9463,"L09C":9464,"Supervisor":9465,"Everyone":9466,"INVITE":9467,"QCA6174A":9468,"050":9469,"3a":9470,"BE":9471,"Fail":9472,"Geo":9473,"HA":9474,"JP":9475,"J2":9476,"NMS":9477,"Ret":9478,"TG":9479,"U3D":9480,"Vault":9481,"boo":9482,"gst":9483,"nc":9484,"necessary":9485,"pick":9486,"ra":9487,"slow":9488,"vS":9489,"wide":9490,"##au":9491,"##OC":9492,"##OW":9493,"##blog":9494,"##bench":9495,"##Download":9496,"##pw":9497,"##And":9498,"##case":9499,"##ges":9500,"##Valid":9501,"##HN":9502,"##ita":9503,"total":9504,"thems":9505,"##loss":9506,"##iaomi":9507,"three":9508,"##forms":9509,"##elves":9510,"##ractor":9511,"1190":9512,"hashed":9513,"##116":9514,"abs":9515,"sendmail":9516,"OpenVPN":9517,"##thread":9518,"##128":9519,"Confluence":9520,"##olved":9521,"opcode":9522,"Compact":9523,"upstream":9524,"##497":9525,"##location":9526,"completely":9527,"##R2P":9528,"CSCui":9529,"weakness":9530,"##proc":9531,"backups":9532,"convince":9533,"ioLogik":9534,"utilities":9535,"##pair":9536,"situation":9537,"plane":9538,"AUTHOR":9539,"M340":9540,"Codec":9541,"negotiation":9542,"Panda":9543,"numeric":9544,"primary":9545,"Philips":9546,"w3m":9547,"inadvertently":9548,"ntdll":9549,"themselves":9550,"2b":9551,"264":9552,"CBC":9553,"PIA":9554,"Wizard":9555,"XT":9556,"fall":9557,"irc":9558,"sco":9559,"spec":9560,"spe":9561,"srv":9562,"tt":9563,"ten":9564,"##oting":9565,"##OK":9566,"##O2":9567,"##ball":9568,"##pid":9569,"##cart":9570,"##house":9571,"##City":9572,"##2300":9573,"##Factory":9574,"##NL":9575,"##LG":9576,"##YP":9577,"tom":9578,"reject":9579,"##edic":9580,"##editor":9581,"##ervice":9582,"##access":9583,"##codes":9584,"detected":9585,"1120":9586,"1116":9587,"complex":9588,"124":9589,"##tember":9590,"##are2":9591,"Unin":9592,"Exec":9593,"153":9594,"##oretically":9595,"existent":9596,"libtiff":9597,"143":9598,"configuring":9599,"OpenP":9600,"CSCum":9601,"V200R009":9602,"misconfig":9603,"##enda":9604,"Comment":9605,"##3500":9606,"##struction":9607,"requiring":9608,"REBEL":9609,"##R200":9610,"##apper":9611,"FP2":9612,"##987":9613,"payloads":9614,"Collector":9615,"##atible":9616,"steps":9617,"USG6600":9618,"CONNECT":9619,"CHM":9620,"membership":9621,"WSO2":9622,"libc6":9623,"RBK50":9624,"schema":9625,"delay":9626,"Presta":9627,"JWT":9628,"##urance":9629,"revoked":9630,"repositories":9631,"September":9632,"Brow":9633,"ERP":9634,"Japan":9635,"MG":9636,"PIX":9637,"PFC":9638,"Sales":9639,"T27":9640,"VC":9641,"WAC":9642,"XFA":9643,"jackson":9644,"mime":9645,"mapped":9646,"snapdragon":9647,"##OB":9648,"##Station":9649,"##pages":9650,"##Acc":9651,"##5000":9652,"##Video":9653,"##2fs":9654,"##vr":9655,"##FP":9656,"##X2":9657,"inode":9658,"##heme":9659,"##alent":9660,"##essus":9661,"##ffff":9662,"1088":9663,"1186":9664,"1124":9665,"resolution":9666,"Unquoted":9667,"154":9668,"135":9669,"30113":9670,"manner":9671,"Char":9672,"##thing":9673,"##127":9674,"caller":9675,"##359":9676,"256":9677,"replies":9678,"PoDo":9679,"ending":9680,"Simp":9681,"Formats":9682,"Analytical":9683,"##Show":9684,"UNC":9685,"referer":9686,"R6800":9687,"Helix":9688,"##Enable":9689,"ClearPass":9690,"30464":9691,"patterns":9692,"##llegal":9693,"Silverlight":9694,"virtio":9695,"##UEST":9696,"QCA9377":9697,"USG9500":9698,"##sockopt":9699,"Inclusion":9700,"##ritten":9701,"gpu":9702,"PoDoFo":9703,"BT":9704,"DML":9705,"D30":9706,"Dok":9707,"Estate":9708,"HS":9709,"Hijack":9710,"KI":9711,"Luc":9712,"Mig":9713,"OB":9714,"Pol":9715,"Rich":9716,"TD":9717,"city":9718,"cxx":9719,"fd":9720,"fax":9721,"ll":9722,"ntpd":9723,"press":9724,"squ":9725,"sto":9726,"x509":9727,"##Pool":9728,"##Pixel":9729,"##mart":9730,"##Coll":9731,"##font":9732,"##FO":9733,"##Helper":9734,"##Graphics":9735,"##ulk":9736,"##aly":9737,"##allet":9738,"##erview":9739,"##usc":9740,"##def":9741,"forced":9742,"unprotected":9743,"##ials":9744,"lost":9745,"disabling":9746,"##apd":9747,"entropy":9748,"Condition":9749,"##toris":9750,"Uncontrolled":9751,"AppScan":9752,"##108":9753,"Review":9754,"soap":9755,"Enable":9756,"submission":9757,"##408":9758,"MSN":9759,"##8081":9760,"##190":9761,"expired":9762,"4088":9763,"##144":9764,"##caps":9765,"##commerce":9766,"##EMR":9767,"8220":9768,"QCA8081":9769,"##lines":9770,"fragments":9771,"BSD":9772,"V200R003C":9773,"Level":9774,"RBR50":9775,"AL00B":9776,"samba":9777,"##Rece":9778,"capturing":9779,"##checked":9780,"TrueType":9781,"Emptoris":9782,"deadlock":9783,"##ividual":9784,"Bounds":9785,"succeed":9786,"V200R009C00":9787,"PrestaShop":9788,"BM":9789,"CIP":9790,"FRE":9791,"Ga":9792,"Last":9793,"Pixel":9794,"Room":9795,"Salt":9796,"TA":9797,"XPC":9798,"Zo":9799,"bt":9800,"crypt":9801,"draw":9802,"few":9803,"mDNS":9804,"rm":9805,"sip":9806,"##Sense":9807,"##Io":9808,"##Dia":9809,"##Escape":9810,"##Vue":9811,"##front":9812,"##Memory":9813,"##erated":9814,"##edo":9815,"##uto":9816,"##idesh":9817,"acl":9818,"pati":9819,"asus":9820,"113":9821,"121":9822,"adds":9823,"chroot":9824,"Accel":9825,"1364":9826,"CSCun":9827,"##801":9828,"asset":9829,"##exec":9830,"##753":9831,"##137":9832,"Symphony":9833,"Certification":9834,"showing":9835,"struct":9836,"Transpor":9837,"TEE":9838,"Configure":9839,"PCRE":9840,"iFix5":9841,"accepting":9842,"Publish":9843,"DHCPv6":9844,"##stats":9845,"libxaac":9846,"Metafile":9847,"V200R006C13":9848,"digits":9849,"PPP":9850,"R7500":9851,"cleanup":9852,"ignored":9853,"Craf":9854,"dropped":9855,"R6700v2":9856,"Smarter":9857,"paste":9858,"##HttpRequest":9859,"exclud":9860,"##queror":9861,"069":9862,"8221":9863,"ALL":9864,"ALE":9865,"AMP":9866,"Cu":9867,"C0":9868,"ENG":9869,"Lex":9870,"NP":9871,"Nok":9872,"OG":9873,"ONS":9874,"WI":9875,"WM":9876,"Zero":9877,"dn":9878,"don":9879,"fw":9880,"pd":9881,"pw":9882,"sun":9883,"treat":9884,"vote":9885,"wizard":9886,"x64":9887,"##PBX":9888,"##bm":9889,"##bird":9890,"##Date":9891,"##ners":9892,"##cube":9893,"##Email":9894,"##vid":9895,"##RX":9896,"##Quest":9897,"inappropriate":9898,"##rap":9899,"exper":9900,"##anti":9901,"##users":9902,"##using":9903,"unwan":9904,"uninstall":9905,"1086":9906,"1118":9907,"1119":9908,"Thus":9909,"applic":9910,"override":9911,"canonical":9912,"##ama":9913,"##ording":9914,"30355":9915,"##323":9916,"Wordpress":9917,"coming":9918,"8447":9919,"##lddm":9920,"FP4":9921,"Loading":9922,"##Coin":9923,"PowerDNS":9924,"4105":9925,"instanti":9926,"30066":9927,"##Status":9928,"##slt":9929,"4094":9930,"calculations":9931,"chunked":9932,"V200R003C10":9933,"confirmation":9934,"resolver":9935,"activation":9936,"##Manage":9937,"GnuTLS":9938,"trying":9939,"thumbnail":9940,"nvlddm":9941,"Drivers":9942,"tomcat":9943,"Uninitialized":9944,"unwanted":9945,"nvlddmkm":9946,"10000":9947,"460":9948,"477":9949,"AI":9950,"A1":9951,"AR1":9952,"BSA":9953,"Bento":9954,"Cum":9955,"Category":9956,"Clean":9957,"DSA":9958,"Dxg":9959,"Pop":9960,"R5":9961,"WLS":9962,"dial":9963,"fb":9964,"frm":9965,"rg":9966,"udp":9967,"v10":9968,"xs":9969,"yaml":9970,"##layer":9971,"##OTE":9972,"##biz":9973,"##Ddi":9974,"##pak":9975,"##xp":9976,"##script":9977,"##cm":9978,"##ko":9979,"##VA":9980,"##wiki":9981,"##from":9982,"##fusc":9983,"##TH":9984,"##Window":9985,"##UID":9986,"##oneous":9987,"##hel":9988,"##ilot":9989,"##roxy":9990,"along":9991,"##arse":9992,"##arget":9993,"prop":9994,"##otrace":9995,"phase":9996,"1012":9997,"##quence":9998,"##ubs":9999,"modifies":10000,"SProc":10001,"perf":10002,"##pop":10003,"libm":10004,"1400":10005,"##uxe":10006,"networks":10007,"SEGV":10008,"SESSION":10009,"Channel":10010,"implements":10011,"screens":10012,"Poly":10013,"8450":10014,"Interconnect":10015,"##ypes":10016,"mounting":10017,"7010":10018,"follows":10019,"CL00C":10020,"checksum":10021,"AR1200":10022,"##lush":10023,"Telemetry":10024,"HF2":10025,"1R6":10026,"distribution":10027,"4097":10028,"floating":10029,"realm":10030,"Life":10031,"##Storage":10032,"Secret":10033,"School":10034,"LIBR":10035,"whitespace":10036,"##texts":10037,"libpng":10038,"Graphite":10039,"erroneous":10040,"derived":10041,"##docs":10042,"R8300":10043,"Avamar":10044,"passphrase":10045,"Motorola":10046,"##ideshow":10047,"Transportation":10048,"Bento4":10049,"2F":10050,"330":10051,"AR200":10052,"Bab":10053,"Che":10054,"CCM":10055,"CWD":10056,"Campaign":10057,"FIN":10058,"Learning":10059,"Member":10060,"P30":10061,"Serendipity":10062,"VCS":10063,"Wes":10064,"X8":10065,"Ya":10066,"blob":10067,"cif":10068,"center":10069,"eM":10070,"gnome":10071,"##ev":10072,"##rs":10073,"##alo":10074,"##KI":10075,"##pot":10076,"##Browser":10077,"##gallery":10078,"##CAP":10079,"##Cell":10080,"##ika":10081,"##670":10082,"##He":10083,"##UL":10084,"##Util":10085,"theoretically":10086,"##erve":10087,"executables":10088,"prod":10089,"photos":10090,"1024":10091,"disables":10092,"##chain":10093,"databind":10094,"injections":10095,"chart":10096,"130":10097,"libming":10098,"149":10099,"186":10100,"##ordin":10101,"30306":10102,"##outer":10103,"SEIL":10104,"##152":10105,"##455":10106,"##454":10107,"##lashing":10108,"responsible":10109,"Ap4":10110,"##488":10111,"8442":10112,"##control":10113,"visits":10114,"Research":10115,"Administrative":10116,"##mapi":10117,"MPLS":10118,"4104":10119,"manipulations":10120,"30051":10121,"Tru":10122,"NVR":10123,"iFix11":10124,"Brocade":10125,"##gorithm":10126,"Bitcoin":10127,"4090":10128,"TL00":10129,"marked":10130,"gives":10131,"JPEG2000":10132,"##Alarm":10133,"RP200":10134,"csv":10135,"listens":10136,"digest":10137,"analy":10138,"Connectors":10139,"V100R005":10140,"recvmsg":10141,"Radio":10142,"Distributed":10143,"Sendmail":10144,"increase":10145,"routines":10146,"Flat":10147,"FAQ":10148,"convincing":10149,"stylesheet":10150,"Informix":10151,"Konqueror":10152,"MICR":10153,"SquirrelMail":10154,"##ergency":10155,"CL00C92B":10156,"LIBRARY":10157,"235":10158,"316":10159,"963":10160,"Ali":10161,"AIM":10162,"Cell":10163,"Clip":10164,"D20":10165,"IA":10166,"Range":10167,"Sim":10168,"Wik":10169,"XL":10170,"cred":10171,"eSpace":10172,"iN":10173,"nav":10174,"robot":10175,"sf":10176,"##dis":10177,"##bor":10178,"##build":10179,"##RDP":10180,"##zone":10181,"##init":10182,"##rif":10183,"beg":10184,"##ane":10185,"##acs":10186,"##acon":10187,"##vell":10188,"ones":10189,"1050":10190,"ask":10191,"1127":10192,"##202":10193,"SPARC":10194,"IDN":10195,"sensor":10196,"##105":10197,"Cool":10198,"##TEC":10199,"libd":10200,"007":10201,"OpenEMR":10202,"SELF":10203,"logins":10204,"htdocs":10205,"##182":10206,"##ARD":10207,"BusinessObjects":10208,"5096":10209,"InterScan":10210,"visitor":10211,"552":10212,"##394":10213,"602":10214,"apt":10215,"##Services":10216,"##XEL":10217,"AR2200":10218,"##tinued":10219,"##uncement":10220,"PROFIN":10221,"dwmapi":10222,"enumeration":10223,"princ":10224,"##Thread":10225,"##Module":10226,"##register":10227,"POE":10228,"##vecot":10229,"Partner":10230,"Issue":10231,"depth":10232,"Foscam":10233,"PROFINET":10234,"211":10235,"8DV":10236,"BUG":10237,"Button":10238,"Cob":10239,"HOST":10240,"NC":10241,"Neo":10242,"TRE":10243,"Vx":10244,"VLAN":10245,"Wide":10246,"cor":10247,"##uages":10248,"##ucket":10249,"##dio":10250,"##Ph":10251,"##P07":10252,"##5800":10253,"##VICE":10254,"##Cms":10255,"##Word":10256,"##UB":10257,"##itro":10258,"##ising":10259,"offl":10260,"examples":10261,"convers":10262,"1077":10263,"##romedia":10264,"1126":10265,"door":10266,"WebCore":10267,"IDS":10268,"132":10269,"##ideos":10270,"##mises":10271,"##402":10272,"uploader":10273,"V200R002":10274,"Macromedia":10275,"##352":10276,"##topic":10277,"Although":10278,"FreeRDP":10279,"workflow":10280,"##matic":10281,"partially":10282,"lockout":10283,"PROGRA":10284,"8406":10285,"8401":10286,"referrer":10287,"E0705":10288,"chunks":10289,"Decoder":10290,"Aggreg":10291,"##iosk":10292,"##Decoder":10293,"ciphertext":10294,"##airo":10295,"ZyXEL":10296,"##Attribute":10297,"##DoS":10298,"CIFS":10299,"ADSL":10300,"convinced":10301,"D6000":10302,"unserialize":10303,"Depending":10304,"HMAC":10305,"ECDSA":10306,"ARCserve":10307,"Hijacking":10308,"patient":10309,"princip":10310,"E0705P07":10311,"343":10312,"8CX":10313,"Faster":10314,"ND":10315,"Nessus":10316,"Ping":10317,"Testing":10318,"cg":10319,"fpx":10320,"gro":10321,"iw":10322,"just":10323,"ok":10324,"rating":10325,"##oper":10326,"##uzz":10327,"##rint":10328,"##Save":10329,"##Driver":10330,"##cmd":10331,"##guard":10332,"##WER":10333,"##Lite":10334,"##XP":10335,"##iss":10336,"##attern":10337,"Inters":10338,"1128":10339,"obfusc":10340,"Webmin":10341,"WebUI":10342,"Protected":10343,"Procedure":10344,"##obi":10345,"145":10346,"005":10347,"messaging":10348,"restricting":10349,"MSR":10350,"signup":10351,"fixes":10352,"##179":10353,"Machines":10354,"##illian":10355,"##702":10356,"ESM":10357,"Privileged":10358,"8435":10359,"8441":10360,"visual":10361,"optional":10362,"##858":10363,"V500R001C60":10364,"Workbench":10365,"db2":10366,"RC4":10367,"NTFS":10368,"multip":10369,"##Force":10370,"Generic":10371,"IRP":10372,"4096":10373,"8405":10374,"referencing":10375,"feedback":10376,"Invalid":10377,"reflashing":10378,"##CHA":10379,"radare2":10380,"params":10381,"interrupt":10382,"R6220":10383,"GnuPG":10384,"D6100":10385,"##cussion":10386,"EDD":10387,"REQUEST":10388,"KEY":10389,"AUTHORITY":10390,"offline":10391,"086":10392,"4147":10393,"669":10394,"Bal":10395,"C2":10396,"C432":10397,"Dream":10398,"DNG":10399,"DLP":10400,"Eco":10401,"IME":10402,"Journal":10403,"KTP":10404,"Leap":10405,"Maria":10406,"ONE":10407,"Pun":10408,"PUT":10409,"S11":10410,"Snap":10411,"Surve":10412,"V9":10413,"Xiaomi":10414,"cr":10415,"campaign":10416,"fake":10417,"journal":10418,"mx":10419,"snd":10420,"testing":10421,"xine":10422,"##SI":10423,"##SG":10424,"##BUG":10425,"##VP":10426,"##2O":10427,"##2b":10428,"##RSS":10429,"##enix":10430,"reache":10431,"##atched":10432,"serve":10433,"unres":10434,"##aten":10435,"1080":10436,"advers":10437,"compose":10438,"composed":10439,"respective":10440,"WebMail":10441,"addr":10442,"##505":10443,"##osen":10444,"##imation":10445,"##803":10446,"##4200":10447,"XMLHttpRequest":10448,"SITE":10449,"8050":10450,"8064":10451,"##SESSID":10452,"CPR9":10453,"Controls":10454,"Execute":10455,"EXP":10456,"ViewPoint":10457,"FP6":10458,"AR150":10459,"xmlrpc":10460,"##6120":10461,"8454":10462,"8428":10463,"8424":10464,"7u51":10465,"individual":10466,"##Entry":10467,"Neutralization":10468,"cards":10469,"8436":10470,"8437":10471,"8431":10472,"extracting":10473,"Grand":10474,"##Respon":10475,"Avast":10476,"Metas":10477,"GlobalProtect":10478,"Broadband":10479,"AWK":10480,"Members":10481,"Concert":10482,"HDF5":10483,"ultimate":10484,"bundled":10485,"##Blue":10486,"##ehic":10487,"##Accel":10488,"MICROS":10489,"MariaDB":10490,"032":10491,"5X":10492,"782":10493,"BER":10494,"Crow":10495,"D4":10496,"Fo":10497,"GRO":10498,"GLP":10499,"LTM":10500,"P3":10501,"QNX":10502,"RM":10503,"Rest":10504,"R6400":10505,"Sav":10506,"amo":10507,"bundle":10508,"gc":10509,"huge":10510,"illegal":10511,"med":10512,"qt":10513,"ruby":10514,"tg":10515,"ter":10516,"tile":10517,"wire":10518,"##amin":10519,"##mode":10520,"##trac":10521,"##imp":10522,"##2k":10523,"##Function":10524,"##Tool":10525,"##Linux":10526,"##Root":10527,"##UST":10528,"##orn":10529,"##nda":10530,"##isten":10531,"##rial":10532,"##nge":10533,"Theme":10534,"Intrusion":10535,"1048":10536,"1095":10537,"websocket":10538,"1123":10539,"##uma":10540,"156":10541,"##uddy":10542,"logo":10543,"logcat":10544,"Accept":10545,"178":10546,"##outbox":10547,"##403":10548,"CSCul":10549,"detailed":10550,"##talk":10551,"8070":10552,"8048":10553,"8062":10554,"8071":10555,"overwritten":10556,"##weaver":10557,"overwrites":10558,"##ermine":10559,"##CADA":10560,"Phorum":10561,"REP":10562,"Safety":10563,"8420":10564,"8430":10565,"8432":10566,"8449":10567,"8448":10568,"Advisor":10569,"moodle":10570,"##852":10571,"##Ref":10572,"MailEnable":10573,"CSCvh":10574,"IMail":10575,"removal":10576,"##WEB":10577,"posting":10578,"##Change":10579,"8425":10580,"8422":10581,"8429":10582,"8426":10583,"8427":10584,"##voy":10585,"twice":10586,"distributions":10587,"8402":10588,"8404":10589,"broken":10590,"impersonation":10591,"Select":10592,"FastBack":10593,"##embler":10594,"##FAQ":10595,"R6900v2":10596,"Pollution":10597,"evaluation":10598,"dhcp":10599,"##Print":10600,"Imaging":10601,"Upgrade":10602,"Navigator":10603,"strip":10604,"becoming":10605,"Marketplace":10606,"dimensions":10607,"##Listener":10608,"KISS":10609,"Migration":10610,"FasterXML":10611,"GLPI":10612,"353":10613,"Band":10614,"Best":10615,"Border":10616,"DVR":10617,"DMA":10618,"ESP":10619,"HCL":10620,"Hotel":10621,"LC":10622,"LL":10623,"Lua":10624,"ML":10625,"Rhaps":10626,"Ten":10627,"Xstore":10628,"ctl":10629,"face":10630,"friend":10631,"ir":10632,"mid":10633,"##drop":10634,"##ea":10635,"##Secure":10636,"##V2":10637,"##Vision":10638,"##iX":10639,"##R7":10640,"##erc":10641,"##orp":10642,"##tick":10643,"inadequate":10644,"##icial":10645,"##ros":10646,"##ersus":10647,"rewrite":10648,"unquoted":10649,"##tingu":10650,"webapp":10651,"##licant":10652,"##tore":10653,"Proc":10654,"Requ":10655,"chan":10656,"libcl":10657,"patches":10658,"1750":10659,"kernels":10660,"OpenLDAP":10661,"MS16":10662,"scheduler":10663,"Motion":10664,"##701":10665,"8065":10666,"8049":10667,"8063":10668,"8055":10669,"8069":10670,"8066":10671,"8061":10672,"8059":10673,"8056":10674,"8067":10675,"8068":10676,"8057":10677,"8058":10678,"##ancer":10679,"##181":10680,"2345":10681,"Sever":10682,"287":10683,"translation":10684,"8410":10685,"8411":10686,"8412":10687,"8413":10688,"8414":10689,"TIV":10690,"spaces":10691,"registering":10692,"##ishi":10693,"IF1":10694,"signatureOrSystem":10695,"8452":10696,"8423":10697,"8421":10698,"8403":10699,"8433":10700,"8434":10701,"R7300":10702,"superuser":10703,"Handle":10704,"concurrent":10705,"ETH":10706,"##ephyr":10707,"Evolved":10708,"IGMP":10709,"reconfig":10710,"Specific":10711,"Architect":10712,"##Output":10713,"HLOS":10714,"expiration":10715,"Ignite":10716,"TensorFlow":10717,"Campus":10718,"##DdiEscape":10719,"Rhapsody":10720,"075":10721,"289":10722,"6P":10723,"9999":10724,"Bad":10725,"Banner":10726,"DPC":10727,"D3600":10728,"FMS":10729,"GL":10730,"IEE":10731,"Jo":10732,"NFX":10733,"RLE":10734,"ROM":10735,"Sandbox":10736,"Value":10737,"XG":10738,"cab":10739,"candidate":10740,"dynam":10741,"drm":10742,"four":10743,"flex":10744,"gb":10745,"iDR":10746,"iLO":10747,"magick":10748,"virt":10749,"xls":10750,"##dc":10751,"##Pri":10752,"##Sync":10753,"##IB":10754,"##DIR":10755,"##my":10756,"##master":10757,"##BG":10758,"##cut":10759,"##imple":10760,"##6800":10761,"##TY":10762,"##World":10763,"##Mgr":10764,"##ectiv":10765,"##allow":10766,"offer":10767,"extend":10768,"##ebox":10769,"1129":10770,"##urple":10771,"exploits":10772,"20042":10773,"151":10774,"Refl":10775,"Repair":10776,"passcode":10777,"##trfs":10778,"PHPSESSID":10779,"choo":10780,"139":10781,"142":10782,"146":10783,"Foreman":10784,"strcpy":10785,"strict":10786,"stable":10787,"##loading":10788,"CSCva":10789,"quoted":10790,"quota":10791,"Detection":10792,"keyring":10793,"##644":10794,"SINU":10795,"Ship":10796,"NUC":10797,"023":10798,"ESV":10799,"smtp":10800,"V14":10801,"CR5":10802,"identification":10803,"Deserial":10804,"2710":10805,"READ":10806,"##ACT":10807,"Elements":10808,"Algorithm":10809,"netfilter":10810,"receipt":10811,"356":10812,"3500":10813,"##790":10814,"keystro":10815,"communicate":10816,"30094":10817,"SmartCloud":10818,"7009":10819,"CFNetwork":10820,"1R5":10821,"problems":10822,"grants":10823,"mysq":10824,"overlay":10825,"pollution":10826,"charset":10827,"AL00A":10828,"disconn":10829,"SilverStri":10830,"DSR":10831,"FROM":10832,"captcha":10833,"copies":10834,"##Price":10835,"##cached":10836,"Planning":10837,"upgrading":10838,"RAX120":10839,"Additionally":10840,"ZENworks":10841,"Initiation":10842,"##MERIK":10843,"BSAFE":10844,"iDRAC":10845,"SINUMERIK":10846,"SilverStripe":10847,"066":10848,"243":10849,"7700":10850,"8000":10851,"Ape":10852,"AAM":10853,"BLE":10854,"Han":10855,"IL":10856,"IMP":10857,"Look":10858,"LINK":10859,"OM":10860,"PD":10861,"PORT":10862,"Sle":10863,"S10":10864,"Sample":10865,"Sentinel":10866,"games":10867,"jas":10868,"math":10869,"p2":10870,"r3":10871,"soft":10872,"ty":10873,"##max":10874,"##AGE":10875,"##cpd":10876,"##fly":10877,"##NAS":10878,"##NVR":10879,"##MQ":10880,"##ilo":10881,"##abbit":10882,"##real":10883,"They":10884,"obtains":10885,"interactive":10886,"##tifier":10887,"148":10888,"##uxure":10889,"1766":10890,"##cloak":10891,"##122":10892,"##photo":10893,"define":10894,"SMF":10895,"##198":10896,"##633":10897,"6977":10898,"##tops":10899,"SA415":10900,"Almond":10901,"Symfony":10902,"7018":10903,"Logger":10904,"##eroute":10905,"toolti":10906,"##R1000":10907,"recording":10908,"association":10909,"blue":10910,"##ublished":10911,"7008":10912,"decoded":10913,"Regular":10914,"Printing":10915,"official":10916,"XR700":10917,"4183":10918,"transmits":10919,"ClearQuest":10920,"##Arch":10921,"ZoneMinder":10922,"NGFW":10923,"Carb":10924,"##Record":10925,"truncated":10926,"FactoryTalk":10927,"business":10928,"carri":10929,"Honey":10930,"Evolution":10931,"V300R001C20":10932,"DGN":10933,"omits":10934,"exceeds":10935,"Brad":10936,"Robo":10937,"continue":10938,"##iliate":10939,"collisions":10940,"BrightStor":10941,"Wonderware":10942,"SugarCRM":10943,"applicable":10944,"Cumulative":10945,"IEEE":10946,"SA415M":10947,"280":10948,"217":10949,"5b":10950,"Atl":10951,"Bulletin":10952,"CCU":10953,"Dll":10954,"E3":10955,"Fore":10956,"FMC":10957,"GI":10958,"Gem":10959,"ISP":10960,"King":10961,"MAR":10962,"Menu":10963,"Mitel":10964,"O110":10965,"PF":10966,"Presence":10967,"ROOT":10968,"Sensor":10969,"Twitter":10970,"WF":10971,"WAR":10972,"che":10973,"jo":10974,"nf":10975,"survey":10976,"sprintf":10977,"tid":10978,"wma":10979,"##Survey":10980,"##yo":10981,"##p1":10982,"##cent":10983,"##kernel":10984,"##With":10985,"##Mo":10986,"##ilon":10987,"##ulated":10988,"##aler":10989,"207":10990,"uname":10991,"##ppermine":10992,"##cout":10993,"appe":10994,"cancel":10995,"resize":10996,"sear":10997,"wasm":10998,"Advertisement":10999,"##106":11000,"plus":11001,"basedir":11002,"OSI":11003,"##6018":11004,"##308":11005,"near":11006,"sometimes":11007,"##AND":11008,"##6400v2":11009,"6978":11010,"6976":11011,"##624":11012,"Standalone":11013,"##listing":11014,"mishandle":11015,"Alstra":11016,"2987":11017,"29935":11018,"mounted":11019,"##3939":11020,"##ORD":11021,"imag":11022,"STAT":11023,"typing":11024,"Messages":11025,"started":11026,"debugger":11027,"Option":11028,"Magic":11029,"##proxy":11030,"replacement":11031,"UXSS":11032,"delivery":11033,"mitigated":11034,"IPSec":11035,"QFX5":11036,"libpurple":11037,"##Runner":11038,"Attachment":11039,"independently":11040,"migrate":11041,"ThinkPad":11042,"##tentionally":11043,"Keystone":11044,"reserved":11045,"##Planet":11046,"homograph":11047,"2785":11048,"Piwigo":11049,"##abbix":11050,"begins":11051,"##Accelerator":11052,"amounts":11053,"libclamav":11054,"O11019":11055,"065":11056,"2c":11057,"3b":11058,"Auction":11059,"Bat":11060,"CCS":11061,"D2":11062,"Gent":11063,"GSS":11064,"JDE":11065,"OA":11066,"ONT":11067,"Ocean":11068,"R6400v2":11069,"Tenda":11070,"X2":11071,"aj":11072,"btrfs":11073,"gate":11074,"i2":11075,"ips":11076,"rp":11077,"ser":11078,"taxonomy":11079,"wifi":11080,"wlan":11081,"xd":11082,"##eed":11083,"##block":11084,"##BO":11085,"##ned":11086,"##All":11087,"##ww":11088,"##width":11089,"##ipper":11090,"##frame":11091,"##vt":11092,"##Fire":11093,"##TCHA":11094,"##XS":11095,"##help":11096,"##icens":11097,"alarm":11098,"##ished":11099,"##abit":11100,"##force":11101,"except":11102,"##ano":11103,"conduc":11104,"contexts":11105,"1025":11106,"126":11107,"##ught":11108,"##anagement":11109,"##tensible":11110,"Couch":11111,"##tron":11112,"134":11113,"##plug":11114,"ACK":11115,"CSCup":11116,"supposed":11117,"misused":11118,"docs":11119,"opj":11120,"2100":11121,"builder":11122,"smar":11123,"smuggling":11124,"323":11125,"Allen":11126,"502":11127,"##824":11128,"formatted":11129,"EX4300":11130,"##4600":11131,"CSCuo":11132,"bluetooth":11133,"enforced":11134,"##profile":11135,"7003":11136,"GetS":11137,"menus":11138,"##Start":11139,"Defender":11140,"Installation":11141,"skip":11142,"forwarded":11143,"invokes":11144,"FortiClient":11145,"##sweeper":11146,"converting":11147,"pkg":11148,"ICMPv6":11149,"WR8":11150,"UnixWare":11151,"SignatureOrSystem":11152,"##aserCMS":11153,"##ddx":11154,"observed":11155,"Helpdesk":11156,"##arantin":11157,"continuously":11158,"##atalk":11159,"rejected":11160,"Belkin":11161,"circumvent":11162,"cifs":11163,"iNotes":11164,"048":11165,"3987":11166,"ATS":11167,"Aterm":11168,"Ceph":11169,"Date":11170,"Gmb":11171,"Gadu":11172,"Head":11173,"Helper":11174,"Ing":11175,"MC":11176,"TZ":11177,"Vol":11178,"XH":11179,"around":11180,"iPlanet":11181,"jb":11182,"qual":11183,"vhost":11184,"wddx":11185,"##oor":11186,"##alog":11187,"##Ops":11188,"##SCADA":11189,"##AIN":11190,"##catel":11191,"##well":11192,"##vi":11193,"##T2":11194,"##WN":11195,"##Mobile":11196,"##Gear":11197,"##tiris":11198,"inbound":11199,"##hema":11200,"##details":11201,"##003":11202,"1078":11203,"##ig2":11204,"##index":11205,"##olve":11206,"imported":11207,"Progress":11208,"confused":11209,"Coppermine":11210,"chosen":11211,"packaged":11212,"validity":11213,"validator":11214,"subnet":11215,"invite":11216,"##imal":11217,"shader":11218,"checkout":11219,"##1500":11220,"##9660":11221,"supplicant":11222,"##eller":11223,"Dovecot":11224,"Once":11225,"decision":11226,"designed":11227,"hostnames":11228,"2883":11229,"SA8":11230,"depends":11231,"##Spot":11232,"Alcatel":11233,"Altiris":11234,"##common":11235,"##Project":11236,"Realtime":11237,"##721":11238,"OneFS":11239,"##Exp":11240,"##231":11241,"QCS610":11242,"Automated":11243,"##nef":11244,"##trans":11245,"Recovery":11246,"ALG":11247,"flat":11248,"KeyView":11249,"##cedures":11250,"topics":11251,"colon":11252,"hosta":11253,"SOA":11254,"homepage":11255,"##AVA":11256,"libavformat":11257,"Signal":11258,"TeamCity":11259,"PayPal":11260,"IPQ6018":11261,"dispatch":11262,"Revolution":11263,"rsync":11264,"mitigation":11265,"##groups":11266,"touchscreen":11267,"##cfg":11268,"TrustZone":11269,"Baseb":11270,"R7000P":11271,"1F6":11272,"Websense":11273,"Roundcube":11274,"Crafted":11275,"Nokia":11276,"GmbH":11277,"970":11278,"BL":11279,"Dual":11280,"Face":11281,"Green":11282,"I7":11283,"Iron":11284,"Layout":11285,"Mid":11286,"MR2":11287,"Native":11288,"RR":11289,"R63":11290,"Trace":11291,"T3000":11292,"UA":11293,"ZO":11294,"ampl":11295,"baserCMS":11296,"eTrust":11297,"fp":11298,"flush":11299,"geo":11300,"give":11301,"guard":11302,"hp":11303,"jQuery":11304,"little":11305,"mar":11306,"om":11307,"que":11308,"r12":11309,"svc":11310,"t1":11311,"vSphere":11312,"##SH":11313,"##DMS":11314,"##pite":11315,"##xistent":11316,"##sa":11317,"##VN":11318,"##iC":11319,"##Folder":11320,"##Flex":11321,"##Win":11322,"##RL":11323,"##Monitor":11324,"##QM":11325,"##eray":11326,"##rol":11327,"##asing":11328,"artif":11329,"unable":11330,"unicode":11331,"##tica":11332,"1071":11333,"1076":11334,"1083":11335,"1093":11336,"areas":11337,"##amel":11338,"##ubishi":11339,"##208":11340,"SPPA":11341,"Comod":11342,"##uda":11343,"##00RP":11344,"choice":11345,"libr":11346,"182":11347,"1830":11348,"kernelAndroid":11349,"station":11350,"stage":11351,"##strap":11352,"##404":11353,"##menu":11354,"never":11355,"consumer":11356,"##459":11357,"price":11358,"##ierarch":11359,"SMA":11360,"invalidate":11361,"##IRC":11362,"##queue":11363,"##SAML":11364,"255":11365,"##195":11366,"6942":11367,"6941":11368,"Liberty":11369,"Pho":11370,"##topus":11371,"CPUs":11372,"##100LG":11373,"Altern":11374,"##373":11375,"Synap":11376,"##position":11377,"preventing":11378,"WN3000":11379,"Spark":11380,"3865":11381,"languages":11382,"##368":11383,"Asus":11384,"unset":11385,"##itsubishi":11386,"V200R006C00":11387,"##ega":11388,"Preferences":11389,"CLIENT":11390,"Keyboard":11391,"PCF":11392,"8642":11393,"##Star":11394,"maps":11395,"encodings":11396,"##XXX":11397,"##Parse":11398,"R7100LG":11399,"concaten":11400,"Before":11401,"QCA6584":11402,"equiv":11403,"dropping":11404,"Swift":11405,"tampering":11406,"Specifically":11407,"provisioning":11408,"UL00C00B":11409,"nonexistent":11410,"unpublished":11411,"Inspector":11412,"multiplication":11413,"Surveillance":11414,"DGN2200":11415,"Comodo":11416,"WN3000RP":11417,"311":11418,"325":11419,"AG":11420,"AU":11421,"Area":11422,"D6200":11423,"GO":11424,"HG":11425,"Ir":11426,"MU":11427,"Mitsubishi":11428,"Nitro":11429,"PAS":11430,"Pending":11431,"Socket":11432,"TF":11433,"Vic":11434,"Widget":11435,"X9":11436,"billing":11437,"gf":11438,"gid":11439,"hon":11440,"jump":11441,"sig":11442,"vd":11443,"##a7":11444,"##PRO":11445,"##Section":11446,"##Session":11447,"##Sheet":11448,"##Drive":11449,"##sr":11450,"##915":11451,"##FR":11452,"##Gener":11453,"ingress":11454,"##ults":11455,"retain":11456,"##anta":11457,"##utls":11458,"##ecured":11459,"crack":11460,"##lium":11461,"1064":11462,"1085":11463,"1073":11464,"##elly":11465,"##mmetric":11466,"##urses":11467,"compute":11468,"##izations":11469,"IDE":11470,"confer":11471,"Microkernel":11472,"##1010":11473,"Cos":11474,"133":11475,"131":11476,"CSME":11477,"shift":11478,"IPB":11479,"SECU":11480,"storing":11481,"Company":11482,"##703":11483,"SICAM":11484,"responding":11485,"responds":11486,"leaking":11487,"editors":11488,"##136":11489,"508":11490,"SiNVR":11491,"Algo":11492,"wpa":11493,"##ldap":11494,"EX6":11495,"Certified":11496,"##PEN":11497,"unsus":11498,"Infusion":11499,"##233":11500,"Verification":11501,"##egoti":11502,"8216":11503,"scanner":11504,"PostNuke":11505,"launched":11506,"Reporter":11507,"MISP":11508,"slapd":11509,"##stat":11510,"4093":11511,"calculating":11512,"dialogs":11513,"DEBUG":11514,"CSCtq":11515,"Handler":11516,"pkt":11517,"AL00C00B":11518,"PSD":11519,"Responsive":11520,"##Any":11521,"SHA":11522,"utilizing":11523,"Cards":11524,"Snort":11525,"recommended":11526,"columns":11527,"Unauthorized":11528,"hooks":11529,"RU6":11530,"Digest":11531,"surface":11532,"Burning":11533,"Mercurial":11534,"QUERY":11535,"Refresh":11536,"principal":11537,"adversary":11538,"dynamically":11539,"Deserialization":11540,"AlstraSoft":11541,"Gentoo":11542,"hostapd":11543,"078":11544,"481":11545,"763":11546,"A2":11547,"BBS":11548,"BAS":11549,"Cameras":11550,"D40":11551,"EJB":11552,"Fis":11553,"Gl":11554,"Just":11555,"JAR":11556,"KER":11557,"N1":11558,"Ray":11559,"Sockets":11560,"Vulnerabilities":11561,"WL":11562,"WAV":11563,"bash":11564,"fm":11565,"focus":11566,"gzip":11567,"gpg":11568,"glyph":11569,"jb2":11570,"mouse":11571,"rand":11572,"ur":11573,"upper":11574,"xp":11575,"##dle":11576,"##aid":11577,"##atial":11578,"##Sign":11579,"##mable":11580,"##ply":11581,"##Bar":11582,"##nl":11583,"##class":11584,"##550":11585,"##Care":11586,"##C01":11587,"##3C":11588,"##valid":11589,"##zy":11590,"##erts":11591,"##heye":11592,"##itative":11593,"##icy":11594,"##ene":11595,"##rove":11596,"throw":11597,"##agate":11598,"unclear":11599,"##ssi":11600,"Int":11601,"##ucible":11602,"ash":11603,"doing":11604,"compe":11605,"compare":11606,"research":11607,"##upy":11608,"incub":11609,"Adserver":11610,"##ighbor":11611,"##angling":11612,"addressbook":11613,"##0001":11614,"##426":11615,"##358":11616,"SMH":11617,"##495":11618,"Travel":11619,"Stats":11620,"transit":11621,"##handled":11622,"providers":11623,"##Proc":11624,"FP10":11625,"AutoCAD":11626,"AutoTrace":11627,"ip6":11628,"##track":11629,"##egas":11630,"AL10C00B":11631,"##viewer":11632,"7002":11633,"gui":11634,"slice":11635,"Liferay":11636,"skb":11637,"Uploader":11638,"##ginx":11639,"destined":11640,"IKEv2":11641,"Jaspers":11642,"ZoneAlarm":11643,"##Things":11644,"##iteral":11645,"##olsom":11646,"CAPTCHA":11647,"activated":11648,"triple":11649,"seller":11650,"completed":11651,"Demand":11652,"gadgets":11653,"orders":11654,"prepare":11655,"mixed":11656,"Legacy":11657,"unrespon":11658,"Jaspersoft":11659,"648":11660,"6ES":11661,"AAA":11662,"Ca":11663,"Cube":11664,"EU":11665,"Lan":11666,"LON":11667,"L29":11668,"MFC":11669,"OF":11670,"SFTP":11671,"VMS":11672,"VIE":11673,"WC":11674,"Wor":11675,"WWW":11676,"XLS":11677,"bid":11678,"ether":11679,"iL":11680,"jenkins":11681,"jgs":11682,"jp2":11683,"pnm":11684,"sas":11685,"tls":11686,"tensor":11687,"wl":11688,"xattr":11689,"##l2":11690,"##omm":11691,"##download":11692,"##ae":11693,"##Switch":11694,"##message":11695,"##cb":11696,"##care":11697,"##gl":11698,"##Fl":11699,"##Wrapper":11700,"##QU":11701,"##enta":11702,"##rog":11703,"unchecked":11704,"##ithub":11705,"10g":11706,"1060":11707,"1074":11708,"Another":11709,"importing":11710,"compat":11711,"##aint":11712,"Context":11713,"Contacts":11714,"IDA":11715,"##103":11716,"##104":11717,"##entials":11718,"crosses":11719,"175":11720,"171":11721,"##prec":11722,"Cha":11723,"##890":11724,"Sciences":11725,"assert":11726,"##ivot":11727,"##illion":11728,"argued":11729,"VMs":11730,"##strument":11731,"##IRT":11732,"despite":11733,"021":11734,"subscribe":11735,"mailto":11736,"402":11737,"SR1":11738,"SRM":11739,"##859":11740,"Logon":11741,"controlling":11742,"snipp":11743,"PowerShell":11744,"Operation":11745,"direction":11746,"Verify":11747,"streaming":11748,"clicks":11749,"Configura":11750,"##Shield":11751,"hashing":11752,"rc3":11753,"##IFI":11754,"Proficy":11755,"launches":11756,"good":11757,"construction":11758,"Creative":11759,"597":11760,"##Tracker":11761,"entitle":11762,"Hotspot":11763,"AMT":11764,"AMQ":11765,"RV0":11766,"Revive":11767,"purch":11768,"Relay":11769,"##going":11770,"Deluxe":11771,"Subscri":11772,"ignore":11773,"restarted":11774,"crontab":11775,"##meric":11776,"GeForce":11777,"quickly":11778,"R6050":11779,"R6900P":11780,"##Options":11781,"destruc":11782,"Bosch":11783,"Aggregation":11784,"Several":11785,"##00RPv2":11786,"Phoenix":11787,"unsuspecting":11788,"3S":11789,"Clo":11790,"Div":11791,"Diff":11792,"ENS":11793,"HH":11794,"La":11795,"Lab":11796,"Land":11797,"M12":11798,"META":11799,"Ni":11800,"QT":11801,"Rtl":11802,"Recur":11803,"Spe":11804,"TX":11805,"Trac":11806,"UE":11807,"UDB":11808,"Wild":11809,"bot":11810,"clock":11811,"hub":11812,"jail":11813,"mpeg":11814,"nb":11815,"pn":11816,"pump":11817,"r1":11818,"samples":11819,"tf":11820,"vc":11821,"zz":11822,"##SW":11823,"##Send":11824,"##Imp":11825,"##more":11826,"##note":11827,"##2d":11828,"##920":11829,"##Wizard":11830,"##GUI":11831,"##tiger":11832,"##ina":11833,"coordin":11834,"##ashes":11835,"##atory":11836,"##agic":11837,"##unce":11838,"##ssh":11839,"Anno":11840,"##urrency":11841,"poly":11842,"##chor":11843,"##stration":11844,"##stract":11845,"Require":11846,"##50P":11847,"chown":11848,"libaut":11849,"##ignment":11850,"##603":11851,"shares":11852,"resulted":11853,"defect":11854,"prefs":11855,"Comments":11856,"##424":11857,"V500R00":11858,"Netw":11859,"##18n":11860,"##tinfo":11861,"6940":11862,"6970":11863,"6975":11864,"6955":11865,"6998":11866,"6956":11867,"CRL":11868,"transl":11869,"4089":11870,"REV":11871,"Platforms":11872,"Attend":11873,"7011":11874,"7017":11875,"##Render":11876,"caches":11877,"postgres":11878,"##ManagerService":11879,"Ver1":11880,"embedding":11881,"7001":11882,"##IFY":11883,"##Account":11884,"retrieval":11885,"7u45":11886,"JR6150":11887,"markdown":11888,"helpers":11889,"LANG":11890,"USG6300":11891,"Kerio":11892,"production":11893,"advantage":11894,"6966":11895,"SuSE":11896,"technical":11897,"DRM":11898,"Splash":11899,"vmx":11900,"FD110":11901,"ActiveMQ":11902,"V500R001C20SPC200PWE":11903,"CXF":11904,"announcement":11905,"##432B":11906,"##Descrip":11907,"Smarty":11908,"##etrics":11909,"SVN5800":11910,"Listener":11911,"pairing":11912,"Crucible":11913,"suggests":11914,"DWR":11915,"Architecture":11916,"reassembly":11917,"sqlite":11918,"Blade":11919,"WNR2020":11920,"STRING":11921,"scheduled":11922,"Lexmark":11923,"Interconnects":11924,"Tru64":11925,"C432E":11926,"PunBB":11927,"reached":11928,"##Response":11929,"Bradley":11930,"unresponsive":11931,"libautotrace":11932,"3d":11933,"COR":11934,"DCP":11935,"ECOM":11936,"Nu":11937,"Push":11938,"PDU":11939,"Rock":11940,"SK":11941,"Size":11942,"Tur":11943,"WRT":11944,"eaves":11945,"fed":11946,"fav":11947,"gss":11948,"nor":11949,"r2":11950,"vehic":11951,"wolf":11952,"xf":11953,"zones":11954,"##Scope":11955,"##boo":11956,"##nic":11957,"##system":11958,"##VS":11959,"##WR":11960,"##WAP":11961,"##Meta":11962,"##econ":11963,"##inja":11964,"##ico":11965,"come":11966,"extern":11967,"##etter":11968,"##reme":11969,"unless":11970,"##rams":11971,"Init":11972,"1072":11973,"##iger":11974,"functional":11975,"##ape":11976,"Contract":11977,"WebAPP":11978,"Produc":11979,"leave":11980,"137":11981,"difficult":11982,"##rigger":11983,"processors":11984,"##laro":11985,"manifest":11986,"IPMI":11987,"1999":11988,"V200R0":11989,"defaults":11990,"##SP1":11991,"Mach":11992,"openshift":11993,"4200":11994,"##ustry":11995,"desired":11996,"6996":11997,"6947":11998,"6995":11999,"6954":12000,"LibRaw":12001,"symbol":12002,"SASL":12003,"targets":12004,"3578":12005,"Attribute":12006,"7019":12007,"Views":12008,"##Intent":12009,"##Plug":12010,"terminating":12011,"presented":12012,"##adel":12013,"Communicator":12014,"4107":12015,"4101":12016,"##Delete":12017,"TYPE":12018,"PCX":12019,"Markdown":12020,"7007":12021,"7004":12022,"##nowledg":12023,"vendors":12024,"Adapter":12025,"iFix18":12026,"DeviceIo":12027,"Jetty":12028,"4098":12029,"mean":12030,"USG6500":12031,"##Setup":12032,"binding":12033,"smaller":12034,"flooding":12035,"Rental":12036,"CAPWAP":12037,"##FILE":12038,"libgd":12039,"knowing":12040,"according":12041,"POSIX":12042,"DELETE":12043,"fallback":12044,"Savant":12045,"ONTAP":12046,"R6300v2":12047,"zzcms":12048,"DeviceIoControl":12049,"319":12050,"466":12051,"9p":12052,"9300":12053,"Cred":12054,"Dir":12055,"D10":12056,"D8500":12057,"FIPS":12058,"GM":12059,"JA":12060,"LVE":12061,"MZ":12062,"Math":12063,"Qemu":12064,"RET":12065,"RQM":12066,"Sony":12067,"Van":12068,"V11":12069,"Wow":12070,"dt":12071,"gz":12072,"gluster":12073,"ipc":12074,"mirror":12075,"oss":12076,"orig":12077,"suffer":12078,"solution":12079,"xps":12080,"##dig":12081,"##DST":12082,"##cer":12083,"##Font":12084,"##TK":12085,"##Next":12086,"##Le":12087,"##Lock":12088,"##Red":12089,"##oring":12090,"##ndez":12091,"##itz":12092,"##alVM":12093,"##level":12094,"##iang":12095,"##detail":12096,"##addr":12097,"conse":12098,"##ides":12099,"##ires":12100,"##acity":12101,"whereby":12102,"##tainers":12103,"webadmin":12104,"114":12105,"##mine":12106,"##update":12107,"enc":12108,"##204":12109,"SPS":12110,"SPSS":12111,"WebView":12112,"Unifier":12113,"Unreal":12114,"percent":12115,"HTTPOnly":12116,"leaving":12117,"138":12118,"136":12119,"liby":12120,"Envoy":12121,"30166":12122,"OpenVMS":12123,"dotCMS":12124,"##angle":12125,"##327":12126,"##804":12127,"##173":12128,"scp":12129,"MacOS":12130,"middleware":12131,"##708":12132,"##orker":12133,"MSM8939":12134,"##uestbook":12135,"##ynchron":12136,"Golden":12137,"CMSMS":12138,"##Container":12139,"##490":12140,"6950":12141,"6960":12142,"6943":12143,"6948":12144,"6974":12145,"6972":12146,"6973":12147,"6951":12148,"6959":12149,"6997":12150,"##5300":12151,"##DImage":12152,"##224":12153,"20038":12154,"Alt":12155,"CAM":12156,"##IGHT":12157,"##390":12158,"7012":12159,"7015":12160,"7016":12161,"7013":12162,"7014":12163,"CloudEngine":12164,"604":12165,"sanitizing":12166,"Processors":12167,"selector":12168,"takes":12169,"dbus":12170,"##RADIUS":12171,"iPrint":12172,"30079":12173,"segments":12174,"7005":12175,"7006":12176,"##Chunk":12177,"stb":12178,"student":12179,"8u131":12180,"reportedly":12181,"predict":12182,"constructing":12183,"4099":12184,"Clan":12185,"realloc":12186,"ATutor":12187,"Heal":12188,"NetWorker":12189,"blogs":12190,"peers":12191,"OPTION":12192,"##Links":12193,"GraalVM":12194,"osCommerce":12195,"GoA":12196,"RBS40":12197,"Optimization":12198,"30417":12199,"delivered":12200,"Leak":12201,"##B078":12202,"AFP":12203,"##parser":12204,"effect":12205,"V500R001C00SPC300":12206,"V500R001C00SPC200":12207,"labels":12208,"Isilon":12209,"bookmarks":12210,"##Studio":12211,"##Struxure":12212,"V500R001C20SPC100PWE":12213,"V500R001C20SPC300B078":12214,"FXOS":12215,"Various":12216,"V500R001C00SPH303":12217,"MuPDF":12218,"V100R011C03":12219,"tenant":12220,"Western":12221,"wiretap":12222,"##istency":12223,"##ectives":12224,"Shipboard":12225,"V500R005":12226,"##Descriptor":12227,"475":12228,"616":12229,"Americ":12230,"CENT":12231,"Folsom":12232,"GRC":12233,"Html":12234,"Ky":12235,"LW":12236,"Label":12237,"Make":12238,"OOM":12239,"ROS":12240,"Root":12241,"Rabbit":12242,"Ser":12243,"S12":12244,"Tes":12245,"Tux":12246,"Umb":12247,"WAP":12248,"bp":12249,"ce":12250,"dav":12251,"life":12252,"nginx":12253,"pending":12254,"psd":12255,"##dor":12256,"##a8":12257,"##Art":12258,"##ED":12259,"##kar":12260,"##Cap":12261,"##Case":12262,"##fg":12263,"##vous":12264,"##West":12265,"##NGImage":12266,"##zter":12267,"##HW":12268,"##inM":12269,"rebind":12270,"##arc":12271,"art":12272,"##report":12273,"unes":12274,"##live":12275,"##ithme":12276,"deput":12277,"1081":12278,"##ploit":12279,"webs":12280,"##urch":12281,"disallow":12282,"enroll":12283,"WebVPN":12284,"interacts":12285,"##gear":12286,"addon":12287,"##10C00":12288,"CoAP":12289,"diff":12290,"18c":12291,"outgoing":12292,"##menta":12293,"someone":12294,"##328":12295,"##324":12296,"##805":12297,"supplies":12298,"Depot":12299,"2214":12300,"##16A":12301,"0930":12302,"repro":12303,"##Console":12304,"Disposition":12305,"CR4":12306,"##531":12307,"288":12308,"277":12309,"transactions":12310,"##371":12311,"mozilla":12312,"##244":12313,"DBA":12314,"WinR":12315,"Redis":12316,"##Remote":12317,"DCC":12318,"##Place":12319,"Indoor":12320,"selecting":12321,"##http":12322,"directives":12323,"Transmission":12324,"##df0000":12325,"##904":12326,"##WebServer":12327,"exposing":12328,"7600":12329,"replaced":12330,"MIB":12331,"RubyG":12332,"slideshow":12333,"JRun":12334,"pdfto":12335,"6318":12336,"Attacker":12337,"Sky":12338,"stealing":12339,"offsets":12340,"achieved":12341,"Decode":12342,"##NEL":12343,"Dialog":12344,"77df0000":12345,"##module":12346,"Octopus":12347,"30280":12348,"##parse":12349,"RAW":12350,"FWSM":12351,"##P1T8":12352,"routes":12353,"Innovation":12354,"##related":12355,"evaluated":12356,"sellPrice":12357,"IPQ8064":12358,"R6250":12359,"Elasticsearch":12360,"Navigation":12361,"##caught":12362,"Hardware":12363,"migration":12364,"Argus":12365,"Terra":12366,"isolation":12367,"tapatalk":12368,"privacy":12369,"PICT":12370,"recognize":12371,"##Vista":12372,"Wavlink":12373,"unusual":12374,"Failure":12375,"J2EE":12376,"scop":12377,"##X2X":12378,"Alien":12379,"R7300DST":12380,"carriage":12381,"conducting":12382,"##arantine":12383,"competition":12384,"incubating":12385,"##ndezvous":12386,"CENTUM":12387,"##ithmetic":12388,"deputy":12389,"3497":12390,"4R":12391,"635":12392,"874":12393,"9Android":12394,"Cast":12395,"CWP":12396,"D50":12397,"EPS":12398,"GH":12399,"GEN":12400,"JCE":12401,"Long":12402,"P4":12403,"Pwn":12404,"Rating":12405,"Roll":12406,"RAM":12407,"STE":12408,"SCSI":12409,"U19":12410,"Vig":12411,"V10":12412,"VGA":12413,"Wifi":12414,"dp":12415,"f2fs":12416,"i386":12417,"ihevc":12418,"lz":12419,"nss":12420,"rich":12421,"ways":12422,"##a5":12423,"##a2":12424,"##Pix":12425,"##OF":12426,"##Sched":12427,"##Svc":12428,"##bs":12429,"##brid":12430,"##xec":12431,"##num":12432,"##hp":12433,"##515":12434,"##warf":12435,"##fish":12436,"##W2":12437,"##Warp":12438,"##NK":12439,"##NR":12440,"##ese":12441,"##inx":12442,"reason":12443,"##edge":12444,"##ism":12445,"##iag":12446,"examin":12447,"##ettings":12448,"##entrator":12449,"##rys":12450,"##reach":12451,"unbound":12452,"##verti":12453,"##henb":12454,"1037":12455,"##assis":12456,"Thin":12457,"Thread":12458,"ens":12459,"Applies":12460,"Extensible":12461,"Enter":12462,"Entry":12463,"188":12464,"##602":12465,"shtml":12466,"##405":12467,"##407":12468,"##phan":12469,"192":12470,"PRNG":12471,"DataPower":12472,"scr":12473,"SIZE":12474,"##IRA":12475,"flaws":12476,"##eee":12477,"##192":12478,"##251":12479,"Track":12480,"##222":12481,"SAS":12482,"Album":12483,"netlink":12484,"extreme":12485,"##IGA":12486,"highlight":12487,"##ORY":12488,"WNR1000":12489,"333":12490,"RealOne":12491,"FP9":12492,"Incident":12493,"##Exec":12494,"listings":12495,"taken":12496,"##itsu":12497,"Assembler":12498,"DevOps":12499,"determining":12500,"newsletter":12501,"Filtering":12502,"magzter":12503,"##Channel":12504,"behind":12505,"##TIME":12506,"mpg":12507,"feeds":12508,"navigate":12509,"MDaemon":12510,"tabs":12511,"secondary":12512,"V500R002C00SPC600":12513,"##uggable":12514,"##WALL":12515,"##Handle":12516,"RBR20":12517,"MEG":12518,"V200R006C12":12519,"V200R006C16":12520,"Movie":12521,"NASM":12522,"Split":12523,"confirmed":12524,"Strict":12525,"utilize":12526,"utilization":12527,"V200R005C00":12528,"CanSec":12529,"Comfort":12530,"disrupt":12531,"NIP6800":12532,"renaming":12533,"0x0000000000000":12534,"reflection":12535,"##pooler":12536,"architecture":12537,"##Interface":12538,"polkit":12539,"##loyee":12540,"encountered":12541,"complexity":12542,"##Receiver":12543,"Zope":12544,"Metasploit":12545,"Apex":12546,"Carbon":12547,"Honeywell":12548,"PendingIntent":12549,"Fisheye":12550,"##upyter":12551,"CanSecWest":12552,"2S":12553,"350":12554,"4G":12555,"442":12556,"9500":12557,"DA":12558,"D60":12559,"DAP":12560,"Dating":12561,"ERC":12562,"Gfx":12563,"Ill":12564,"LTE":12565,"Mater":12566,"NW":12567,"Potential":12568,"PAC":12569,"Pipeline":12570,"Uber":12571,"Virt":12572,"WD":12573,"XFS":12574,"Xcode":12575,"Zoom":12576,"Zabbix":12577,"bn":12578,"ctrl":12579,"dj":12580,"foot":12581,"github":12582,"ieee":12583,"kadm":12584,"nd":12585,"pull":12586,"pcap":12587,"umask":12588,"xpdf":12589,"yt":12590,"##oint":12591,"##utable":12592,"##dmin":12593,"##PR":12594,"##Off":12595,"##bug":12596,"##bucket":12597,"##B1":12598,"##Button":12599,"##tt":12600,"##the":12601,"##new":12602,"##category":12603,"##3300":12604,"##vg":12605,"##Top":12606,"##4J":12607,"##Grid":12608,"##orama":12609,"##tart":12610,"##enium":12611,"##asm":12612,"unrelated":12613,"Initial":12614,"1046":12615,"usercp":12616,"1122":12617,"compos":12618,"poss":12619,"##minexus":12620,"seq":12621,"Containers":12622,"ProFTPD":12623,"MicroLogix":12624,"155":12625,"##109":12626,"Repe":12627,"Rendezvous":12628,"differences":12629,"APEX":12630,"3071":12631,"IP20":12632,"MSG":12633,"CSCub":12634,"##156":12635,"premises":12636,"##ANGE":12637,"MoinM":12638,"Dele":12639,"20082":12640,"##000000":12641,"##255":12642,"Statistics":12643,"##REF":12644,"##letters":12645,"##851":12646,"mediatek":12647,"##Play":12648,"Spatial":12649,"##Exception":12650,"AR3200":12651,"##RAM":12652,"##encies":12653,"30060":12654,"##ublisher":12655,"##Details":12656,"Expressway":12657,"GPG":12658,"##Char":12659,"Fixpak":12660,"V500R002C00B0":12661,"DirectWrite":12662,"Startup":12663,"V100R001C10B0":12664,"libavc":12665,"deserialized":12666,"VirusScan":12667,"FI98":12668,"1000V":12669,"Neut":12670,"##TeX":12671,"boxes":12672,"switching":12673,"pci":12674,"produced":12675,"graphs":12676,"##NDnet":12677,"##Format":12678,"##itect":12679,"##parent":12680,"telnetd":12681,"mitigate":12682,"mappings":12683,"OOo":12684,"SonicWall":12685,"Images":12686,"NIP6300":12687,"NIP6600":12688,"Updater":12689,"bbcode":12690,"constraints":12691,"traceroute":12692,"IceWarp":12693,"wait":12694,"becomes":12695,"minimum":12696,"DotNet":12697,"##BIOS":12698,"Nortel":12699,"HNAP1":12700,"mismatch":12701,"Accounts":12702,"utf8":12703,"TRENDnet":12704,"Grandstream":12705,"Forefront":12706,"appended":12707,"searches":12708,"Configurator":12709,"MoinMoin":12710,"1c":12711,"230":12712,"4491":12713,"BC":12714,"Boo":12715,"Care":12716,"Circ":12717,"Down":12718,"Dragon":12719,"D35":12720,"DSM":12721,"EML":12722,"Flo":12723,"FRAME":12724,"GPS":12725,"ICU":12726,"JE":12727,"KR":12728,"Lead":12729,"L32":12730,"Met":12731,"N12":12732,"OW":12733,"PAR":12734,"Scal":12735,"TXT":12736,"Us":12737,"WW":12738,"aac":12739,"cups":12740,"dcc":12741,"her":12742,"kb":12743,"kde":12744,"mass":12745,"oauth":12746,"rare":12747,"sch":12748,"sdp":12749,"vf":12750,"##dl":12751,"##Socket":12752,"##p3":12753,"##kes":12754,"##gue":12755,"##fana":12756,"##vity":12757,"##Tube":12758,"##4d":12759,"##tender":12760,"##tix":12761,"##tik":12762,"##tig":12763,"##ilies":12764,"##aber":12765,"arithmetic":12766,"##agga":12767,"profil":12768,"early":12769,"1117":12770,"1121":12771,"compress":12772,"discard":12773,"mods":12774,"insp":12775,"trap":12776,"learn":12777,"soon":12778,"choose":12779,"179":12780,"rogue":12781,"30394":12782,"manuf":12783,"shm":12784,"SSDT":12785,"ACI":12786,"preference":12787,"accomp":12788,"##452":12789,"##ATCH":12790,"Priv":12791,"##353":12792,"SMM":12793,"##CServer":12794,"##ynx":12795,"substit":12796,"##622":12797,"##621":12798,"2840":12799,"##CAL":12800,"5057":12801,"REM":12802,"##INX":12803,"QuIC":12804,"0x8":12805,"Freeware":12806,"1X45":12807,"ASF":12808,"Notebook":12809,"shows":12810,"Cloudera":12811,"locks":12812,"Assurance":12813,"TEW":12814,"##738":12815,"##POWER":12816,"blk":12817,"30070":12818,"Multilayer":12819,"##GPU":12820,"##Forge":12821,"1R8":12822,"AirPort":12823,"CSCtz":12824,"RH22":12825,"Merge":12826,"RBS20":12827,"operators":12828,"mitigations":12829,"decrypted":12830,"##mediate":12831,"GTM":12832,"widgets":12833,"interruption":12834,"happens":12835,"representation":12836,"Axis":12837,"IGSS":12838,"overview":12839,"##Packet":12840,"Picture":12841,"FORM":12842,"belonging":12843,"Essentials":12844,"facilitate":12845,"M580":12846,"Sourc":12847,"##lossary":12848,"##alyzer":12849,"Curam":12850,"EcoStruxure":12851,"##2Own":12852,"iLearning":12853,"##laroline":12854,"GoAhead":12855,"Pwn2Own":12856,"DotNetNuke":12857,"3131":12858,"3359":12859,"577":12860,"609":12861,"Bash":12862,"Col":12863,"Crys":12864,"Dah":12865,"EDS":12866,"IB":12867,"IMS":12868,"JScript":12869,"Ko":12870,"LF":12871,"Mil":12872,"MPlayer":12873,"NIS":12874,"Prag":12875,"Pos":12876,"R9":12877,"Sni":12878,"Survey":12879,"Tab":12880,"TOS":12881,"Torrent":12882,"Titan":12883,"UCM":12884,"VDS":12885,"WG":12886,"Wind":12887,"bw":12888,"ble":12889,"bat":12890,"fmt":12891,"hence":12892,"j2k":12893,"mas":12894,"mms":12895,"music":12896,"pt":12897,"p3":12898,"rsp":12899,"rds":12900,"s3":12901,"v12":12902,"vManage":12903,"vGPU":12904,"wik":12905,"xn":12906,"##uri":12907,"##dh":12908,"##dk":12909,"##event":12910,"##SB":12911,"##panel":12912,"##Bro":12913,"##AI":12914,"##hw":12915,"##keeper":12916,"##366":12917,"##vs":12918,"##job":12919,"##YLE":12920,"##Mark":12921,"##zi":12922,"##Xml":12923,"##GIS":12924,"inaccess":12925,"##range":12926,"##tioned":12927,"##icoh":12928,"served":12929,"procedures":12930,"##eler":12931,"##ello":12932,"webd":12933,"webkit":12934,"##olid":12935,"##ayers":12936,"##chat":12937,"##stored":12938,"Construction":12939,"Coat":12940,"##sert":12941,"1312":12942,"libj":12943,"Plain":12944,"OpenC":12945,"Schema":12946,"##322":12947,"##opy":12948,"scroll":12949,"Macro":12950,"notice":12951,"##tensions":12952,"##boss":12953,"##IRIGA":12954,"Output":12955,"FileNet":12956,"##timon":12957,"##locate":12958,"##629":12959,"transformation":12960,"0777":12961,"Quiz":12962,"Quake":12963,"CoreGraphics":12964,"##828":12965,"formatting":12966,"Sybase":12967,"EX4600":12968,"##apps":12969,"##Internal":12970,"##C00SPC300":12971,"##888":12972,"Consul":12973,"printf":12974,"Infinite":12975,"recorded":12976,"V100R001C01":12977,"commons":12978,"OpManager":12979,"ISAPI":12980,"3945":12981,"DIRECT":12982,"Creator":12983,"ITDS":12984,"V500R002C00SPC200":12985,"##byte":12986,"NGINX":12987,"TRIRIGA":12988,"##reshold":12989,"smartphone":12990,"volumes":12991,"Graphical":12992,"rows":12993,"30152":12994,"##Default":12995,"ALPS02":12996,"Gigabit":12997,"V100R006C00":12998,"##Installer":12999,"ReadyNAS":13000,"absence":13001,"Lucent":13002,"7F":13003,"Authentic":13004,"Blo":13005,"Ear":13006,"FU":13007,"GRE":13008,"Little":13009,"Maker":13010,"ONAP":13011,"RW":13012,"RCP":13013,"RRC":13014,"SF":13015,"See":13016,"Secur":13017,"Sale":13018,"T2":13019,"VE":13020,"Vir":13021,"XB":13022,"Xml":13023,"YC":13024,"ade":13025,"aux":13026,"b2":13027,"ceph":13028,"dam":13029,"django":13030,"eap":13031,"fx":13032,"fid":13033,"ig":13034,"jp":13035,"mutex":13036,"pal":13037,"rte":13038,"rar":13039,"rfc":13040,"sup":13041,"saves":13042,"vorbis":13043,"wan":13044,"yet":13045,"##d2":13046,"##domain":13047,"##aire":13048,"##Stop":13049,"##b1":13050,"##It":13051,"##DOM":13052,"##mas":13053,"##ttpd":13054,"##sf":13055,"##center":13056,"##512":13057,"##Cmd":13058,"##fect":13059,"##2f":13060,"##810":13061,"##WI":13062,"##Gen":13063,"##Job":13064,"##tep":13065,"##eck":13066,"##rake":13067,"##ichenb":13068,"##eness":13069,"##alink":13070,"explorer":13071,"##ffect":13072,"ansible":13073,"unhandled":13074,"##acc":13075,"##emaker":13076,"##tsp":13077,"1047":13078,"asf":13079,"HTC":13080,"authenticity":13081,"129":13082,"seen":13083,"##209":13084,"WebServer":13085,"priority":13086,"AppSuite":13087,"Exim":13088,"1702":13089,"20170":13090,"staff":13091,"##imd":13092,"creator":13093,"##ipes":13094,"MS11":13095,"##427":13096,"APIC":13097,"Short":13098,"24X":13099,"subscription":13100,"##638":13101,"Emergency":13102,"28G":13103,"##liance":13104,"52G":13105,"Impact":13106,"Logic":13107,"Logging":13108,"##Real":13109,"DLLs":13110,"##728":13111,"##Ads":13112,"Classified":13113,"##httpd":13114,"Operator":13115,"removes":13116,"Vera":13117,"beta2":13118,"rc6":13119,"SmartThings":13120,"Opens":13121,"##LOAD":13122,"swap":13123,"predictab":13124,"##start":13125,"referred":13126,"deserialize":13127,"fragmentation":13128,"SoC":13129,"collect":13130,"FTA":13131,"LOCK":13132,"RBK40":13133,"redirected":13134,"##feed":13135,"wrap":13136,"MEL":13137,"##B062":13138,"downstream":13139,"digit":13140,"ActionScript":13141,"##ubuntu0":13142,"Mono":13143,"Federation":13144,"Federated":13145,"actors":13146,"carry":13147,"captured":13148,"Hosted":13149,"V500R001C20SPC200B062":13150,"LOGIN":13151,"8482":13152,"##amboo":13153,"glX":13154,"LXCA":13155,"gnutls":13156,"V500R001C20SPC300PWE":13157,"Bleichenb":13158,"pfSense":13159,"V500R001C00SPH508":13160,"Groovy":13161,"subscriber":13162,"##iquid":13163,"CuteNews":13164,"conflict":13165,"optimization":13166,"SProcX":13167,"LLDP":13168,"reconfigure":13169,"ILOM":13170,"smarty":13171,"ZOHO":13172,"amplification":13173,"equivalent":13174,"##Anywhere":13175,"AMQP":13176,"Netwide":13177,"externally":13178,"ihevcd":13179,"ensuring":13180,"Dahua":13181,"inaccessible":13182,"Bleichenbacher":13183,"512":13184,"607":13185,"C636":13186,"Draw":13187,"DDL":13188,"G3":13189,"Ger":13190,"HFS":13191,"House":13192,"Ide":13193,"JDBC":13194,"JIRA":13195,"KK":13196,"Ly":13197,"Loc":13198,"Lime":13199,"M0":13200,"Mos":13201,"Multicast":13202,"NCP":13203,"OTP":13204,"Rack":13205,"Restric":13206,"RAP":13207,"RIC":13208,"River":13209,"Tree":13210,"TWiki":13211,"U3":13212,"X1":13213,"XBL":13214,"Xoops":13215,"bulk":13216,"cURL":13217,"dangling":13218,"h2":13219,"jelly":13220,"luc":13221,"people":13222,"puppet":13223,"sle":13224,"tur":13225,"torrent":13226,"vEdge":13227,"##listed":13228,"##dwards":13229,"##PATH":13230,"##OH":13231,"##b00":13232,"##IVE":13233,"##paces":13234,"##np":13235,"##Air":13236,"##hib":13237,"##VI":13238,"##Codes":13239,"##ipped":13240,"##f9":13241,"##Torrent":13242,"##teon":13243,"##rab":13244,"exact":13245,"##00D":13246,"proj":13247,"##actor":13248,"##criptions":13249,"1051":13250,"1052":13251,"distingu":13252,"##lla":13253,"##show":13254,"HTML5":13255,"##duce":13256,"##istor":13257,"modal":13258,"Uns":13259,"Ext":13260,"##ako":13261,"181":13262,"setsockopt":13263,"IPA":13264,"OpenM":13265,"PRI":13266,"##807":13267,"##iller":13268,"##422":13269,"##ellman":13270,"##706":13271,"##168":13272,"246":13273,"decl":13274,"universal":13275,"254":13276,"exports":13277,"##139":13278,"##134":13279,"##weight":13280,"mails":13281,"Phot":13282,"##content":13283,"FreeRADIUS":13284,"EXEC":13285,"##pcd":13286,"Redirection":13287,"##ORM":13288,"toolbar":13289,"64bit":13290,"##R1P1T8":13291,"V500R002C10":13292,"Agents":13293,"White":13294,"SCCP":13295,"posix":13296,"scans":13297,"Groups":13298,"Toolbar":13299,"Bitbucket":13300,"Paper":13301,"unders":13302,"updater":13303,"RBK20":13304,"Convert":13305,"redirecting":13306,"delimit":13307,"gdk":13308,"##Local":13309,"PPTP":13310,"macros":13311,"dcraw":13312,"denied":13313,"Presentation":13314,"Forwarding":13315,"antivirus":13316,"2R7":13317,"atoms":13318,"interpret":13319,"reducing":13320,"MPEG4":13321,"bgp":13322,"DVD":13323,"cnf":13324,"TikiWiki":13325,"##crep":13326,"Fujitsu":13327,"schedule":13328,"Rapid7":13329,"Gaim":13330,"treats":13331,"terms":13332,"Reflection":13333,"JDEdwards":13334,"HHVM":13335,"V200R010C00":13336,"RabbitMQ":13337,"rebinding":13338,"Vigor":13339,"ERC20":13340,"Illust":13341,"adequate":13342,"0S":13343,"379":13344,"Ak":13345,"Bamboo":13346,"DD":13347,"DNA":13348,"EH":13349,"E12":13350,"EDR":13351,"Fine":13352,"Further":13353,"FSM":13354,"Fetch":13355,"Food":13356,"HW":13357,"Iv":13358,"Imm":13359,"JMS":13360,"JIT":13361,"MY":13362,"Mand":13363,"Mitig":13364,"Not":13365,"OE":13366,"P20":13367,"Pla":13368,"PSE":13369,"RX":13370,"RG":13371,"Role":13372,"Sending":13373,"Tower":13374,"TDS":13375,"V20":13376,"WU":13377,"XA":13378,"XFree":13379,"cable":13380,"cwp":13381,"ePolicy":13382,"grid":13383,"gather":13384,"gtk":13385,"h264":13386,"lx":13387,"led":13388,"literal":13389,"mq":13390,"song":13391,"zend":13392,"##lang":13393,"##ova":13394,"##e6":13395,"##eon":13396,"##aff":13397,"##OCS":13398,"##Sel":13399,"##yes":13400,"##IBE":13401,"##ILES":13402,"##Disk":13403,"##mq":13404,"##mac":13405,"##Bee":13406,"##hd":13407,"##E3":13408,"##Cam":13409,"##war":13410,"##free":13411,"##365":13412,"##NMS":13413,"##Method":13414,"##Maker":13415,"##ortant":13416,"##tities":13417,"inner":13418,"##ili":13419,"##icata":13420,"##room":13421,"##uses":13422,"usually":13423,"isc":13424,"##copy":13425,"##ites":13426,"##iba":13427,"##iber":13428,"advertisement":13429,"Through":13430,"Analog":13431,"distin":13432,"##uming":13433,"##chant":13434,"##2010":13435,"ProC":13436,"159":13437,"##words":13438,"147":13439,"1763":13440,"##119":13441,"invocation":13442,"##302":13443,"Openfire":13444,"neutraliz":13445,"CSCts":13446,"##158":13447,"##326":13448,"##808":13449,"##ocon":13450,"anything":13451,"4280":13452,"SMC":13453,"SM72":13454,"##bose":13455,"223":13456,"##ARCH":13457,"237":13458,"IOx":13459,"Disp":13460,"##628":13461,"##539":13462,"##DIS":13463,"Stable":13464,"5064":13465,"SunOS":13466,"##comment":13467,"spell":13468,"formats":13469,"2924":13470,"##ERT":13471,"##7700":13472,"Win32":13473,"FusionPBX":13474,"keystore":13475,"Mailman":13476,"snoop":13477,"8211":13478,"DHT":13479,"Keycloak":13480,"Trillian":13481,"Weak":13482,"colors":13483,"ADO":13484,"ProxySG":13485,"Skin":13486,"##CRIBE":13487,"2X51":13488,"shortcode":13489,"##Systems":13490,"RPD":13491,"DOC":13492,"printable":13493,"ESXi650":13494,"correcting":13495,"##Books":13496,"questions":13497,"effects":13498,"##Analyzer":13499,"decrypting":13500,"PEAR":13501,"WRITE":13502,"warn":13503,"C00E160":13504,"##MFILES":13505,"FD120":13506,"##Byte":13507,"EVO":13508,"FRN":13509,"shipping":13510,"Orchestration":13511,"TOCT":13512,"documented":13513,"HEAD":13514,"omitted":13515,"DeltaV":13516,"Two":13517,"objdump":13518,"Affiliate":13519,"waiting":13520,"Receipt":13521,"subdomain":13522,"icmp":13523,"HashiC":13524,"cvs":13525,"architectures":13526,"inetd":13527,"bandwidth":13528,"##quisition":13529,"misconfiguration":13530,"VxWorks":13531,"Restore":13532,"mysqld":13533,"OSIsoft":13534,"PASV":13535,"RETR":13536,"STEP":13537,"RCPT":13538,"Illustrator":13539,"HashiCorp":13540,"1S":13541,"378":13542,"4a":13543,"5c":13544,"742":13545,"829":13546,"923":13547,"AE":13548,"ATP":13549,"BO":13550,"BG":13551,"C185":13552,"D55":13553,"Elite":13554,"EVPN":13555,"Games":13556,"Hive":13557,"HEN":13558,"ICC":13559,"Kara":13560,"Orion":13561,"Pod":13562,"Pure":13563,"QPDF":13564,"Qpid":13565,"R6120":13566,"Sis":13567,"Sof":13568,"Such":13569,"SID":13570,"UC":13571,"WIFI":13572,"X7":13573,"ack":13574,"dpm":13575,"fabric":13576,"hfs":13577,"hdr":13578,"ix":13579,"iManager":13580,"jw":13581,"nat":13582,"roll":13583,"sap":13584,"t3":13585,"xorg":13586,"zlib":13587,"##PI":13588,"##Style":13589,"##ym":13590,"##br":13591,"##Im":13592,"##Biz":13593,"##sys":13594,"##Ajax":13595,"##V1":13596,"##Custom":13597,"##folder":13598,"##vu":13599,"##vial":13600,"##vpn":13601,"##Title":13602,"##Writer":13603,"##440":13604,"##4000":13605,"##M2":13606,"##MG":13607,"##Users":13608,"##ZIP":13609,"##header":13610,"##itto":13611,"##alto":13612,"##uters":13613,"##ads":13614,"acquire":13615,"##acew":13616,"InTouch":13617,"deprec":13618,"1040":13619,"1055":13620,"1059":13621,"##tained":13622,"##ractical":13623,"##racuda":13624,"##yst":13625,"Thom":13626,"##urs":13627,"pointing":13628,"##apter":13629,"SPIP":13630,"##OSH":13631,"WebAdmin":13632,"158":13633,"##oxy":13634,"Count":13635,"Comb":13636,"##TED":13637,"CSRSS":13638,"division":13639,"intel":13640,"1860":13641,"1629":13642,"indexing":13643,"##604":13644,"abc":13645,"##126":13646,"##avio":13647,"##159":13648,"##321":13649,"prem":13650,"pref":13651,"AVG":13652,"4241":13653,"args":13654,"OnCell":13655,"##1850":13656,"mach":13657,"##755":13658,"classpath":13659,"##Contents":13660,"329":13661,"##482":13662,"mailing":13663,"##555":13664,"272":13665,"translate":13666,"5059":13667,"##MENT":13668,"##INT":13669,"Quagga":13670,"CoreOS":13671,"083":13672,"##823":13673,"##STS":13674,"EX2":13675,"Industry":13676,"##CUST":13677,"##DEX":13678,"20056":13679,"##auncher":13680,"rc7":13681,"Subrion":13682,"##Activity":13683,"GPAC":13684,"launcher":13685,"SOCK":13686,"##azine":13687,"COMP":13688,"health":13689,"playing":13690,"4190":13691,"Gradle":13692,"6u60":13693,"separator":13694,"disconnection":13695,"powerpc":13696,"AWT":13697,"Barco":13698,"Barracuda":13699,"Indexer":13700,"Crash":13701,"##UPnP":13702,"##Display":13703,"Robot":13704,"V200R001C00":13705,"##uckus":13706,"Healthcare":13707,"Pandora":13708,"Rendering":13709,"among":13710,"exfiltrate":13711,"Panorama":13712,"believed":13713,"telephone":13714,"##OKIE":13715,"excluding":13716,"libdwarf":13717,"homographs":13718,"KERNEL":13719,"##validated":13720,"unbounded":13721,"Crystal":13722,"LimeSurvey":13723,"XFree86":13724,"0000":13725,"0rc":13726,"1A":13727,"620":13728,"8800":13729,"BAC":13730,"Cher":13731,"DAT":13732,"GB":13733,"GStream":13734,"Joh":13735,"Jiang":13736,"Kan":13737,"MPC":13738,"Ruckus":13739,"Stri":13740,"SCP":13741,"Spooler":13742,"T28":13743,"Target":13744,"WMF":13745,"Ze":13746,"au":13747,"bz":13748,"dy":13749,"e17":13750,"geta":13751,"ih":13752,"iCMS":13753,"i18n":13754,"kiosk":13755,"ncp":13756,"sms":13757,"sftp":13758,"twitter":13759,"vmware":13760,"wfo":13761,"xxx":13762,"##lb":13763,"##da":13764,"##dog":13765,"##Ob":13766,"##Support":13767,"##SIGHT":13768,"##b4":13769,"##bank":13770,"##bidden":13771,"##Di":13772,"##mx":13773,"##xl":13774,"##cgi":13775,"##VAS":13776,"##Col":13777,"##wap":13778,"##Note":13779,"##ji":13780,"##RITY":13781,"##Min":13782,"##Home":13783,"##URE":13784,"##Zilla":13785,"##oner":13786,"##ecom":13787,"##ecenter":13788,"##album":13789,"reboo":13790,"alerts":13791,"##rie":13792,"##usive":13793,"proof":13794,"##coder":13795,"detec":13796,"1094":13797,"##iga":13798,"##inding":13799,"compatibility":13800,"discussion":13801,"1229":13802,"encaps":13803,"##207":13804,"Webserver":13805,"WebPanel":13806,"##object":13807,"##10C":13808,"ReDoS":13809,"Course":13810,"##plan":13811,"1800":13812,"167":13813,"indexed":13814,"##608":13815,"30198":13816,"OpenServer":13817,"OpenText":13818,"SELinux":13819,"Chart":13820,"AC9":13821,"formula":13822,"CSCti":13823,"CSCtr":13824,"ServiceDesk":13825,"supporting":13826,"##456":13827,"##icker":13828,"openid":13829,"Deep":13830,"Compaq":13831,"SM6":13832,"Netware":13833,"0933":13834,"2400":13835,"programming":13836,"##eetings":13837,"Api":13838,"##193":13839,"ION":13840,"##133":13841,"##256":13842,"##6220":13843,"transform":13844,"5063":13845,"Technic":13846,"##lishes":13847,"##caped":13848,"Interfaces":13849,"##CODE":13850,"##tlm":13851,"##241":13852,"EX6150":13853,"SR3":13854,"returning":13855,"Loader":13856,"STOR":13857,"STYLE":13858,"orderby":13859,"##Count":13860,"SIPRO":13861,"limiting":13862,"##444":13863,"autof":13864,"IF00":13865,"Backend":13866,"Centric":13867,"Commander":13868,"GPMF":13869,"Pydio":13870,"multibyte":13871,"retrieving":13872,"iFix10":13873,"754":13874,"Bitra":13875,"SRX3":13876,"##Configuration":13877,"Visualization":13878,"avi":13879,"Telephone":13880,"DEVICE":13881,"4192":13882,"4191":13883,"4194":13884,"4187":13885,"V500R002C00SPC700":13886,"converter":13887,"Good":13888,"radius":13889,"88SS":13890,"purpose":13891,"##paper":13892,"particip":13893,"TRACE":13894,"S5700":13895,"replaying":13896,"MTU":13897,"contributions":13898,"##Unregister":13899,"MOVE":13900,"observe":13901,"DIV":13902,"reviews":13903,"Route":13904,"V600R006C00SPC200":13905,"remains":13906,"JNR":13907,"banking":13908,"##limited":13909,"intervention":13910,"WNDR3":13911,"##elcome":13912,"scalar":13913,"TACA":13914,"Dxgk":13915,"##Photo":13916,"PROGRAMFILES":13917,"Crowd":13918,"keystrokes":13919,"disconnecting":13920,"DllUnregister":13921,"GIMP":13922,"jbig2":13923,"Baseboard":13924,"purchase":13925,"##CUSTC":13926,"GStreamer":13927,"SIPROTEC":13928,"DllUnregisterServer":13929,"0f":13930,"1r":13931,"4172":13932,"5100":13933,"ADF":13934,"AAC":13935,"Both":13936,"Current":13937,"Citect":13938,"D1":13939,"Dav":13940,"DIC":13941,"Ep":13942,"Ever":13943,"Equ":13944,"EOF":13945,"Finder":13946,"HREF":13947,"Ov":13948,"PCM":13949,"PIM":13950,"RIM":13951,"SB":13952,"TCL":13953,"Tunnel":13954,"Ve":13955,"VO":13956,"Wall":13957,"WPS":13958,"XF":13959,"aware":13960,"dash":13961,"eZ":13962,"ecrypt":13963,"fr":13964,"gw":13965,"halt":13966,"mw":13967,"nfc":13968,"njs":13969,"pipel":13970,"sess":13971,"spring":13972,"vo":13973,"wu":13974,"xC":13975,"##uv":13976,"##umm":13977,"##dns":13978,"##a9":13979,"##a6":13980,"##Pic":13981,"##Pages":13982,"##pine":13983,"##tree":13984,"##hn":13985,"##Ed":13986,"##Cook":13987,"##Category":13988,"##CNM":13989,"##f0":13990,"##fin":13991,"##video":13992,"##Task":13993,"##War":13994,"##4100":13995,"##Look":13996,"##Main":13997,"##MAX":13998,"##House":13999,"intentionally":14000,"##tats":14001,"##ulp":14002,"##isation":14003,"##iases":14004,"##005":14005,"phpWeb":14006,"love":14007,"Instrument":14008,"1056":14009,"##ibbo":14010,"overrun":14011,"##shiba":14012,"Conti":14013,"modes":14014,"##acker":14015,"Ads":14016,"##aily":14017,"perhaps":14018,"parsers":14019,"chk":14020,"Acro":14021,"CSD":14022,"1453":14023,"##ario":14024,"strn":14025,"##601":14026,"##lesh":14027,"SEPM":14028,"Chrom":14029,"19c":14030,"PR2000":14031,"##329":14032,"verifier":14033,"verbose":14034,"##177":14035,"4246":14036,"##SEE":14037,"##Conver":14038,"Emerson":14039,"##786":14040,"Storm":14041,"sysctl":14042,"##868":14043,"##ACL":14044,"FreeRT":14045,"WN5":14046,"ReadM":14047,"ReadOne":14048,"CloudCNM":14049,"STH":14050,"filesystems":14051,"Recover":14052,"suid":14053,"clicked":14054,"screenshot":14055,"##Developer":14056,"##333":14057,"XenMobile":14058,"Submit":14059,"SimpleSAML":14060,"Partition":14061,"1R9":14062,"slave":14063,"JRS":14064,"Newsletter":14065,"##standard":14066,"Recorder":14067,"phpMyFAQ":14068,"CORE":14069,"COOKIE":14070,"cryptography":14071,"##clude":14072,"ATT":14073,"navigating":14074,"binder":14075,"cpu":14076,"granting":14077,"seconds":14078,"RBK8":14079,"Diagnostic":14080,"escapes":14081,"DNSS":14082,"Malformed":14083,"Premise":14084,"III":14085,"Money":14086,"OOB":14087,"recvfrom":14088,"##Order":14089,"ignores":14090,"trivial":14091,"Linear":14092,"Trustlet":14093,"observing":14094,"0968":14095,"constraint":14096,"RHEV":14097,"3325":14098,"MKD":14099,"Slack":14100,"recommends":14101,"H5O":14102,"silently":14103,"BBCode":14104,"facilitates":14105,"pixbuf":14106,"sanity":14107,"GXV":14108,"Fuji":14109,"SecuManager":14110,"Tempor":14111,"Cryptography":14112,"Cryptographic":14113,"vSRX":14114,"OBJECT":14115,"FREE":14116,"##viders":14117,"Polycom":14118,"YaBB":14119,"##ierarchy":14120,"SECURITY":14121,"Requirements":14122,"CORBA":14123,"wolfSSL":14124,"Savant2":14125,"Vanilla":14126,"Tuxedo":14127,"TerraMaster":14128,"Castle":14129,"Splitting":14130,"##imdal":14131,"##acewalk":14132,"JNR1010":14133,"TACACS":14134,"ecryptfs":14135,"FreeRTOS":14136,"3rd":14137,"4175":14138,"626":14139,"AA":14140,"Agor":14141,"Amb":14142,"BP":14143,"BF":14144,"BY":14145,"Bul":14146,"Batch":14147,"Cle":14148,"Dyn":14149,"Eud":14150,"Friend":14151,"Geek":14152,"Ha":14153,"H2":14154,"JSS":14155,"JDeveloper":14156,"Ltd":14157,"Liquid":14158,"MW":14159,"Mik":14160,"MFP":14161,"Now":14162,"Nex":14163,"NEC":14164,"Palm":14165,"Typ":14166,"VT":14167,"V03":14168,"Woo":14169,"X3":14170,"bib":14171,"bos":14172,"cycle":14173,"dpc":14174,"er":14175,"fn":14176,"pac":14177,"qc":14178,"ranges":14179,"tes":14180,"xkb":14181,"zephyr":14182,"##oon":14183,"##urier":14184,"##OFT":14185,"##b9":14186,"##b3":14187,"##b0":14188,"##browser":14189,"##phere":14190,"##sm":14191,"##ASS":14192,"##VID":14193,"##Copy":14194,"##ii":14195,"##ien":14196,"##f1":14197,"##8S":14198,"##Finder":14199,"##Wh":14200,"##Watch":14201,"##Widget":14202,"##WORD":14203,"##Language":14204,"##R4":14205,"##zen":14206,"##Gain":14207,"##erge":14208,"##nders":14209,"repo":14210,"##leth":14211,"##rian":14212,"cover":14213,"##ann":14214,"##etree":14215,"isom":14216,"##ffects":14217,"servlets":14218,"unm":14219,"##ppy":14220,"##verified":14221,"prof":14222,"##like":14223,"##come":14224,"onwards":14225,"onmous":14226,"##ately":14227,"1069":14228,"##estron":14229,"##odec":14230,"overread":14231,"overrid":14232,"modifier":14233,"addons":14234,"##udson":14235,"HTTPD":14236,"lex":14237,"##502":14238,"chmod":14239,"##ooms":14240,"libex":14241,"APK":14242,"sendmsg":14243,"FireSIGHT":14244,"##oke":14245,"OpenD":14246,"OpenA":14247,"##124":14248,"##berg":14249,"##806":14250,"##961":14251,"mista":14252,"4250":14253,"##356":14254,"##357":14255,"##ditor":14256,"SMART":14257,"##707":14258,"respond":14259,"FileManager":14260,"curve":14261,"##191":14262,"##Conn":14263,"##Conf":14264,"Arena":14265,"##492":14266,"##536":14267,"##SPC500":14268,"LibS":14269,"symb":14270,"##INFO":14271,"Quad":14272,"##handler":14273,"nonstandard":14274,"##829":14275,"moz":14276,"prevention":14277,"##template":14278,"originating":14279,"INT":14280,"INIT":14281,"deleg":14282,"STAR":14283,"Toshiba":14284,"4500":14285,"3600":14286,"Gitlab":14287,"presentation":14288,"ALP":14289,"sidebar":14290,"##atient":14291,"QCA98":14292,"rc5":14293,"##ublish":14294,"##Detail":14295,"4180":14296,"Student":14297,"UniFi":14298,"##linical":14299,"##Chain":14300,"Docu":14301,"##FTPd":14302,"iFix4":14303,"##uncy":14304,"Cyrus":14305,"panels":14306,"##URN":14307,"revocation":14308,"Abstract":14309,"Heimdal":14310,"guessable":14311,"FortiManager":14312,"Electronic":14313,"Decomp":14314,"Second":14315,"##OOLS":14316,"libxslt":14317,"BigTree":14318,"osTicket":14319,"unsafely":14320,"##rban":14321,"NFSv4":14322,"Programmable":14323,"PKI":14324,"MRG":14325,"Organ":14326,"Upstream":14327,"renegoti":14328,"ScreenOS":14329,"##uffman":14330,"R6020":14331,"R6080":14332,"Bouncy":14333,"ibm":14334,"Crestron":14335,"Encoder":14336,"Drive":14337,"Times":14338,"Affects":14339,"mgmt":14340,"exfiltration":14341,"Mercury":14342,"##ammad":14343,"3626":14344,"OSSIM":14345,"WNDAP":14346,"WPA2":14347,"lighttpd":14348,"pressing":14349,"##Dialog":14350,"ultimately":14351,"##Archive":14352,"Battle":14353,"gateways":14354,"CouchDB":14355,"CubeCart":14356,"Diffie":14357,"NiFi":14358,"unescaped":14359,"extremely":14360,"Circle":14361,"REMOTE":14362,"glXDisp":14363,"TOCTOU":14364,"Karaf":14365,"deprecated":14366,"DNSSEC":14367,"Agora":14368,"Eudora":14369,"3P":14370,"Aura":14371,"CDP":14372,"CDE":14373,"Das":14374,"D25":14375,"D6400":14376,"D6220":14377,"Fan":14378,"Fram":14379,"Hom":14380,"Hellman":14381,"HSTS":14382,"Kn":14383,"Mes":14384,"MES":14385,"OL":14386,"ODBC":14387,"PU":14388,"Pin":14389,"PSP":14390,"PCP":14391,"PSM":14392,"Posts":14393,"Ques":14394,"TXE":14395,"VH":14396,"Via":14397,"VAL":14398,"Yet":14399,"Zammad":14400,"bd":14401,"cata":14402,"cairo":14403,"draft":14404,"eF":14405,"eye":14406,"fuse":14407,"hit":14408,"hour":14409,"hop":14410,"ice":14411,"kind":14412,"mong":14413,"nmap":14414,"oops":14415,"pv":14416,"rl":14417,"round":14418,"sales":14419,"til":14420,"ut":14421,"vtiger":14422,"week":14423,"xss":14424,"##lte":14425,"##uSoft":14426,"##Pay":14427,"##Sample":14428,"##Select":14429,"##KEN":14430,"##DWG":14431,"##meter":14432,"##B3":14433,"##tow":14434,"##tch":14435,"##tcha":14436,"##hci":14437,"##520":14438,"##kat":14439,
[...]
